{
  "version": "1.0",
  "truncation": null,
  "padding": null,
  "added_tokens": [
    {
      "id": 0,
      "content": "<s>",
      "single_word": false,
      "lstrip": false,
      "rstrip": false,
      "normalized": false,
      "special": true
    },
    {
      "id": 1,
      "content": "</s>",
      "single_word": false,
      "lstrip": false,
      "rstrip": false,
      "normalized": false,
      "special": true
    }
  ],
  "normalizer": {
    "type": "Sequence",
    "normalizers": [
      {
        "type": "NFD"
      },
      {
        "type": "Lowercase"
      },
      {
        "type": "StripAccents"
      }
    ]
  },
  "pre_tokenizer": {
    "type": "Sequence",
    "pretokenizers": [
      {
        "type": "Whitespace"
      },
      {
        "type": "Punctuation",
        "behavior": "Isolated"
      },
      {
        "type": "Digits",
        "individual_digits": true
      }
    ]
  },
  "post_processor": {
    "type": "TemplateProcessing",
    "single": [
      {
        "SpecialToken": {
          "id": "<s>",
          "type_id": 0
        }
      },
      {
        "Sequence": {
          "id": "A",
          "type_id": 0
        }
      },
      {
        "SpecialToken": {
          "id": "</s>",
          "type_id": 0
        }
      }
    ],
    "pair": [
      {
        "Sequence": {
          "id": "A",
          "type_id": 0
        }
      },
      {
        "Sequence": {
          "id": "B",
          "type_id": 1
        }
      }
    ],
    "special_tokens": {
      "</s>": {
        "id": "</s>",
        "ids": [
          1
        ],
        "tokens": [
          "</s>"
        ]
      },
      "<s>": {
        "id": "<s>",
        "ids": [
          0
        ],
        "tokens": [
          "<s>"
        ]
      }
    }
  },
  "decoder": {
    "type": "BPEDecoder",
    "suffix": "</w>"
  },
  "model": {
    "type": "BPE",
    "dropout": null,
    "unk_token": null,
    "continuing_subword_prefix": null,
    "end_of_word_suffix": "</w>",
    "fuse_unk": false,
    "byte_fallback": false,
    "vocab": {
      "<s>": 0,
      "</s>": 1,
      "!": 2,
      "\"": 3,
      "#": 4,
      "$": 5,
      "%": 6,
      "&": 7,
      "'": 8,
      "(": 9,
      ")": 10,
      "*": 11,
      "+": 12,
      ",": 13,
      "-": 14,
      ".": 15,
      "/": 16,
      "0": 17,
      "1": 18,
      "2": 19,
      "3": 20,
      "4": 21,
      "5": 22,
      "6": 23,
      "7": 24,
      "8": 25,
      "9": 26,
      ":": 27,
      ";": 28,
      "<": 29,
      "=": 30,
      ">": 31,
      "?": 32,
      "@": 33,
      "[": 34,
      "\\": 35,
      "]": 36,
      "_": 37,
      "`": 38,
      "a": 39,
      "b": 40,
      "c": 41,
      "d": 42,
      "e": 43,
      "f": 44,
      "g": 45,
      "h": 46,
      "i": 47,
      "j": 48,
      "k": 49,
      "l": 50,
      "m": 51,
      "n": 52,
      "o": 53,
      "p": 54,
      "q": 55,
      "r": 56,
      "s": 57,
      "t": 58,
      "u": 59,
      "v": 60,
      "w": 61,
      "x": 62,
      "y": 63,
      "z": 64,
      "{": 65,
      "|": 66,
      "}": 67,
      "~": 68,
      "¡": 69,
      "¢": 70,
      "£": 71,
      "¦": 72,
      "§": 73,
      "¨": 74,
      "©": 75,
      "ª": 76,
      "«": 77,
      "¬": 78,
      "­": 79,
      "¯": 80,
      "°": 81,
      "±": 82,
      "²": 83,
      "³": 84,
      "´": 85,
      "¶": 86,
      "¹": 87,
      "»": 88,
      "½": 89,
      "¿": 90,
      "ð": 91,
      "œ": 92,
      "ˆ": 93,
      "˜": 94,
      "–": 95,
      "‘": 96,
      "’": 97,
      "‚": 98,
      "“": 99,
      "”": 100,
      "„": 101,
      "•": 102,
      "…": 103,
      "‰": 104,
      "‹": 105,
      "€": 106,
      "™": 107,
      "e</w>": 108,
      "m</w>": 109,
      "r</w>": 110,
      "d</w>": 111,
      "w</w>": 112,
      "y</w>": 113,
      "i</w>": 114,
      "g</w>": 115,
      "a</w>": 116,
      "s</w>": 117,
      "t</w>": 118,
      "l</w>": 119,
      "n</w>": 120,
      "o</w>": 121,
      "k</w>": 122,
      "f</w>": 123,
      "b</w>": 124,
      "u</w>": 125,
      "h</w>": 126,
      "°</w>": 127,
      "z</w>": 128,
      "x</w>": 129,
      "9</w>": 130,
      "+</w>": 131,
      "p</w>": 132,
      "c</w>": 133,
      ")</w>": 134,
      "v</w>": 135,
      "…</w>": 136,
      "”</w>": 137,
      "j</w>": 138,
      "©</w>": 139,
      "¿</w>": 140,
      "«</w>": 141,
      "3</w>": 142,
      "~</w>": 143,
      "\"</w>": 144,
      "{</w>": 145,
      "•</w>": 146,
      "></w>": 147,
      "/</w>": 148,
      "@</w>": 149,
      "!</w>": 150,
      ":</w>": 151,
      "=</w>": 152,
      "-</w>": 153,
      "‘</w>": 154,
      "q</w>": 155,
      "¢</w>": 156,
      ",</w>": 157,
      "_</w>": 158,
      "™</w>": 159,
      "7</w>": 160,
      "´</w>": 161,
      "1</w>": 162,
      "(</w>": 163,
      "8</w>": 164,
      "»</w>": 165,
      "4</w>": 166,
      "­</w>": 167,
      "¦</w>": 168,
      "%</w>": 169,
      ";</w>": 170,
      "ˆ</w>": 171,
      "}</w>": 172,
      "6</w>": 173,
      "„</w>": 174,
      "€</w>": 175,
      "œ</w>": 176,
      "‰</w>": 177,
      "*</w>": 178,
      "–</w>": 179,
      "¯</w>": 180,
      "&</w>": 181,
      "¨</w>": 182,
      "˜</w>": 183,
      "ð</w>": 184,
      "5</w>": 185,
      "\\</w>": 186,
      "§</w>": 187,
      "³</w>": 188,
      "<</w>": 189,
      "¡</w>": 190,
      "2</w>": 191,
      "²</w>": 192,
      "’</w>": 193,
      "0</w>": 194,
      "‹</w>": 195,
      "#</w>": 196,
      "¶</w>": 197,
      "?</w>": 198,
      "“</w>": 199,
      "¹</w>": 200,
      "`</w>": 201,
      "|</w>": 202,
      "½</w>": 203,
      "]</w>": 204,
      "±</w>": 205,
      ".</w>": 206,
      "'</w>": 207,
      "[</w>": 208,
      "$</w>": 209,
      "£</w>": 210,
      "¬</w>": 211,
      "‚</w>": 212,
      "th": 213,
      "an": 214,
      "ed</w>": 215,
      "the</w>": 216,
      "and</w>": 217,
      "he</w>": 218,
      "the": 219,
      "wa": 220,
      "to</w>": 221,
      "in": 222,
      "ou": 223,
      "er</w>": 224,
      "ar": 225,
      "was</w>": 226,
      "li": 227,
      "sa": 228,
      "it</w>": 229,
      "she</w>": 230,
      "ha": 231,
      "er": 232,
      "ing</w>": 233,
      "they</w>": 234,
      "on": 235,
      "en": 236,
      "ly</w>": 237,
      "to": 238,
      "lo": 239,
      "hi": 240,
      "ti": 241,
      "ea": 242,
      "on</w>": 243,
      "me</w>": 244,
      "it": 245,
      "her</w>": 246,
      "ay</w>": 247,
      "mo": 248,
      "at</w>": 249,
      "id</w>": 250,
      "in</w>": 251,
      "ma": 252,
      "el": 253,
      "en</w>": 254,
      "re</w>": 255,
      "le</w>": 256,
      "ri": 257,
      "ca": 258,
      "es</w>": 259,
      "st": 260,
      "bu": 261,
      "no": 262,
      "said</w>": 263,
      "ro": 264,
      "re": 265,
      "yo": 266,
      "ll</w>": 267,
      "you</w>": 268,
      "ked</w>": 269,
      "pl": 270,
      "fo": 271,
      "his</w>": 272,
      "wit": 273,
      "pp": 274,
      "with</w>": 275,
      "lily</w>": 276,
      "ce</w>": 277,
      "ra": 278,
      "ld</w>": 279,
      "ve</w>": 280,
      "tt": 281,
      "that</w>": 282,
      "one</w>": 283,
      "ver": 284,
      "so</w>": 285,
      "day</w>": 286,
      "bi": 287,
      "ho": 288,
      "so": 289,
      "of</w>": 290,
      "my</w>": 291,
      "ke</w>": 292,
      "bo": 293,
      "but</w>": 294,
      "mi": 295,
      "ted</w>": 296,
      "id": 297,
      "ck</w>": 298,
      "had</w>": 299,
      "ne": 300,
      "fu": 301,
      "mom</w>": 302,
      "se</w>": 303,
      "very</w>": 304,
      "is</w>": 305,
      "be": 306,
      "wh": 307,
      "ba": 308,
      "co": 309,
      "gh": 310,
      "le": 311,
      "oun": 312,
      "wan": 313,
      "happ": 314,
      "mmy</w>": 315,
      "do": 316,
      "for</w>": 317,
      "st</w>": 318,
      "ere</w>": 319,
      "ir": 320,
      "sh": 321,
      "there</w>": 322,
      "ttle</w>": 323,
      "su": 324,
      "ds</w>": 325,
      "little</w>": 326,
      "time</w>": 327,
      "loo": 328,
      "ch</w>": 329,
      "ound</w>": 330,
      "ould</w>": 331,
      "ys</w>": 332,
      "are</w>": 333,
      "happy</w>": 334,
      "not</w>": 335,
      "rea": 336,
      "led</w>": 337,
      "fri": 338,
      "la": 339,
      "ther</w>": 340,
      "ent</w>": 341,
      "big</w>": 342,
      "saw</w>": 343,
      "go": 344,
      "frien": 345,
      "ry</w>": 346,
      "se": 347,
      "ir</w>": 348,
      "me": 349,
      "al": 350,
      "sp": 351,
      "ge": 352,
      "ved</w>": 353,
      "play</w>": 354,
      "were</w>": 355,
      "ga": 356,
      "once</w>": 357,
      "pla": 358,
      "ght</w>": 359,
      "car": 360,
      "be</w>": 361,
      "up": 362,
      "na": 363,
      "out</w>": 364,
      "or": 365,
      "un": 366,
      "hel": 367,
      "wanted</w>": 368,
      "their</w>": 369,
      "ec": 370,
      "can</w>": 371,
      "ch": 372,
      "as": 373,
      "upon</w>": 374,
      "gir": 375,
      "girl</w>": 376,
      "him</w>": 377,
      "them</w>": 378,
      "up</w>": 379,
      "ta": 380,
      "fa": 381,
      "pu": 382,
      "tom</w>": 383,
      "smi": 384,
      "have</w>": 385,
      "ver</w>": 386,
      "ben</w>": 387,
      "de</w>": 388,
      "ts</w>": 389,
      "fro": 390,
      "wi": 391,
      "ex": 392,
      "go</w>": 393,
      "hat</w>": 394,
      "dd": 395,
      "med</w>": 396,
      "ck": 397,
      "ter</w>": 398,
      "went</w>": 399,
      "ee": 400,
      "we</w>": 401,
      "all</w>": 402,
      "thing</w>": 403,
      "ful</w>": 404,
      "da": 405,
      "new</w>": 406,
      "friends</w>": 407,
      "gs</w>": 408,
      "ide</w>": 409,
      "what</w>": 410,
      "when</w>": 411,
      "par": 412,
      "pi": 413,
      "fel": 414,
      "way</w>": 415,
      "play": 416,
      "tu": 417,
      "from</w>": 418,
      "ind</w>": 419,
      "hu": 420,
      "side</w>": 421,
      "ru": 422,
      "then</w>": 423,
      "fi": 424,
      "timmy</w>": 425,
      "some": 426,
      "back</w>": 427,
      "jo": 428,
      "named</w>": 429,
      "too</w>": 430,
      "smiled</w>": 431,
      "mu": 432,
      "loved</w>": 433,
      "like</w>": 434,
      "asked</w>": 435,
      "star": 436,
      "felt</w>": 437,
      "fun</w>": 438,
      "could</w>": 439,
      "sto": 440,
      "looked</w>": 441,
      "wn</w>": 442,
      "around</w>": 443,
      "do</w>": 444,
      "bir": 445,
      "ok</w>": 446,
      "ss</w>": 447,
      "ard</w>": 448,
      "wor": 449,
      "king</w>": 450,
      "ju": 451,
      "help</w>": 452,
      "ear</w>": 453,
      "boy</w>": 454,
      "od</w>": 455,
      "di": 456,
      "as</w>": 457,
      "some</w>": 458,
      "thin": 459,
      "did</w>": 460,
      "see</w>": 461,
      "would</w>": 462,
      "our</w>": 463,
      "now</w>": 464,
      "pa": 465,
      "si": 466,
      "mommy</w>": 467,
      "make</w>": 468,
      "says</w>": 469,
      "away</w>": 470,
      "toge": 471,
      "together</w>": 472,
      "sed</w>": 473,
      "lu": 474,
      "lly</w>": 475,
      "ran</w>": 476,
      "started</w>": 477,
      "ld": 478,
      "other</w>": 479,
      "want</w>": 480,
      "made</w>": 481,
      "came</w>": 482,
      "something</w>": 483,
      "rou": 484,
      "et</w>": 485,
      "sho": 486,
      "te</w>": 487,
      "park</w>": 488,
      "gi": 489,
      "an</w>": 490,
      "ni": 491,
      "op": 492,
      "man</w>": 493,
      "ree</w>": 494,
      "exc": 495,
      "ited</w>": 496,
      "scar": 497,
      "sad</w>": 498,
      "ab": 499,
      "wal": 500,
      "ong</w>": 501,
      "aga": 502,
      "tim</w>": 503,
      "got</w>": 504,
      "mp": 505,
      "than": 506,
      "th</w>": 507,
      "sh</w>": 508,
      "home</w>": 509,
      "again</w>": 510,
      "gg": 511,
      "found</w>": 512,
      "ried</w>": 513,
      "bird</w>": 514,
      "who</w>": 515,
      "put</w>": 516,
      "po": 517,
      "pped</w>": 518,
      "qu": 519,
      "more</w>": 520,
      "ang": 521,
      "playing</w>": 522,
      "low": 523,
      "let</w>": 524,
      "gh</w>": 525,
      "al</w>": 526,
      "dec": 527,
      "ls</w>": 528,
      "things</w>": 529,
      "ja": 530,
      "liked</w>": 531,
      "dad</w>": 532,
      "and": 533,
      "na</w>": 534,
      "no</w>": 535,
      "yes</w>": 536,
      "red</w>": 537,
      "decid": 538,
      "ny</w>": 539,
      "excited</w>": 540,
      "friend</w>": 541,
      "get</w>": 542,
      "decided</w>": 543,
      "he": 544,
      "look</w>": 545,
      "sti": 546,
      "scared</w>": 547,
      "this</w>": 548,
      "ouse</w>": 549,
      "down</w>": 550,
      "sar": 551,
      "anna</w>": 552,
      "sam</w>": 553,
      "your</w>": 554,
      "ous</w>": 555,
      "thou": 556,
      "will</w>": 557,
      "clo": 558,
      "by</w>": 559,
      "good</w>": 560,
      "ks</w>": 561,
      "very": 562,
      "every": 563,
      "dog</w>": 564,
      "ways</w>": 565,
      "cou": 566,
      "max</w>": 567,
      "use</w>": 568,
      "gr": 569,
      "sor": 570,
      "spec": 571,
      "each</w>": 572,
      "find</w>": 573,
      "ned</w>": 574,
      "out": 575,
      "or</w>": 576,
      "always</w>": 577,
      "did": 578,
      "took</w>": 579,
      "about</w>": 580,
      "toys</w>": 581,
      "lear": 582,
      "om</w>": 583,
      "mb": 584,
      "cu": 585,
      "didn</w>": 586,
      "af": 587,
      "outside</w>": 588,
      "sk": 589,
      "ers</w>": 590,
      "lea": 591,
      "tree</w>": 592,
      "lled</w>": 593,
      "fe": 594,
      "gra": 595,
      "ened</w>": 596,
      "pre": 597,
      "bb": 598,
      "ched</w>": 599,
      "de": 600,
      "speci": 601,
      "how</w>": 602,
      "ugh": 603,
      "whi": 604,
      "old</w>": 605,
      "ge</w>": 606,
      "tur": 607,
      "come</w>": 608,
      "thought</w>": 609,
      "room</w>": 610,
      "fin": 611,
      "take</w>": 612,
      "sorry</w>": 613,
      "any</w>": 614,
      "special</w>": 615,
      "wo": 616,
      "inside</w>": 617,
      "knew</w>": 618,
      "sudd": 619,
      "tter</w>": 620,
      "ant</w>": 621,
      "pe": 622,
      "pic": 623,
      "every</w>": 624,
      "don</w>": 625,
      "ldn</w>": 626,
      "car</w>": 627,
      "sw": 628,
      "dy</w>": 629,
      "toy</w>": 630,
      "tw": 631,
      "just</w>": 632,
      "enly</w>": 633,
      "suddenly</w>": 634,
      "end</w>": 635,
      "ev": 636,
      "gged</w>": 637,
      "if</w>": 638,
      "ani": 639,
      "for": 640,
      "ball</w>": 641,
      "eful</w>": 642,
      "is": 643,
      "know</w>": 644,
      "house</w>": 645,
      "bro": 646,
      "much</w>": 647,
      "ok": 648,
      "spo": 649,
      "after</w>": 650,
      "lou": 651,
      "jack</w>": 652,
      "ke": 653,
      "shed</w>": 654,
      "cks</w>": 655,
      "gave</w>": 656,
      "tried</w>": 657,
      "into</w>": 658,
      "eat</w>": 659,
      "told</w>": 660,
      "of": 661,
      "prou": 662,
      "heard</w>": 663,
      "ty</w>": 664,
      "water</w>": 665,
      "never</w>": 666,
      "mia</w>": 667,
      "wat": 668,
      "der": 669,
      "sara</w>": 670,
      "sel": 671,
      "played</w>": 672,
      "over</w>": 673,
      "box</w>": 674,
      "rs</w>": 675,
      "laugh": 676,
      "couldn</w>": 677,
      "cause</w>": 678,
      "proud</w>": 679,
      "cy</w>": 680,
      "ice</w>": 681,
      "hugged</w>": 682,
      "nny</w>": 683,
      "because</w>": 684,
      "ying</w>": 685,
      "war": 686,
      "fe</w>": 687,
      "many</w>": 688,
      "where</w>": 689,
      "sta": 690,
      "exp": 691,
      "mar": 692,
      "hea": 693,
      "sma": 694,
      "any": 695,
      "ite</w>": 696,
      "les</w>": 697,
      "ally</w>": 698,
      "flow": 699,
      "bea": 700,
      "bear</w>": 701,
      "kes</w>": 702,
      "eep</w>": 703,
      "nice</w>": 704,
      "anima": 705,
      "com": 706,
      "ble</w>": 707,
      "ving</w>": 708,
      "shin": 709,
      "ture</w>": 710,
      "ting</w>": 711,
      "ard": 712,
      "str": 713,
      "ear": 714,
      "ma</w>": 715,
      "unti": 716,
      "ff": 717,
      "ell</w>": 718,
      "bra": 719,
      "sure</w>": 720,
      "thank</w>": 721,
      "rp": 722,
      "gre": 723,
      "until</w>": 724,
      "small</w>": 725,
      "learned</w>": 726,
      "its</w>": 727,
      "right</w>": 728,
      "ad": 729,
      "ddy</w>": 730,
      "soon</w>": 731,
      "better</w>": 732,
      "everyone</w>": 733,
      "ft</w>": 734,
      "even</w>": 735,
      "ced</w>": 736,
      "crea": 737,
      "best</w>": 738,
      "hur": 739,
      "ning</w>": 740,
      "tru": 741,
      "ves</w>": 742,
      "careful</w>": 743,
      "ss": 744,
      "gard": 745,
      "explo": 746,
      "ered</w>": 747,
      "cat</w>": 748,
      "fee": 749,
      "qui": 750,
      "beau": 751,
      "off</w>": 752,
      "garden</w>": 753,
      "sky</w>": 754,
      "love</w>": 755,
      "thanked</w>": 756,
      "low</w>": 757,
      "mily</w>": 758,
      "laughed</w>": 759,
      "say</w>": 760,
      "zed</w>": 761,
      "list": 762,
      "feel": 763,
      "self</w>": 764,
      "help": 765,
      "gu": 766,
      "la</w>": 767,
      "te": 768,
      "beauti": 769,
      "lew</w>": 770,
      "sli": 771,
      "beautiful</w>": 772,
      "long</w>": 773,
      "lots</w>": 774,
      "loud</w>": 775,
      "still</w>": 776,
      "fly</w>": 777,
      "animals</w>": 778,
      "pt</w>": 779,
      "kind</w>": 780,
      "chi": 781,
      "joh": 782,
      "both</w>": 783,
      "rin": 784,
      "give</w>": 785,
      "ling</w>": 786,
      "ded</w>": 787,
      "rest</w>": 788,
      "mon": 789,
      "ever</w>": 790,
      "ane</w>": 791,
      "safe</w>": 792,
      "two</w>": 793,
      "mes</w>": 794,
      "spot</w>": 795,
      "il</w>": 796,
      "okay</w>": 797,
      "feel</w>": 798,
      "try</w>": 799,
      "ople</w>": 800,
      "people</w>": 801,
      "der</w>": 802,
      "lived</w>": 803,
      "pro": 804,
      "tty</w>": 805,
      "walked</w>": 806,
      "angry</w>": 807,
      "ven": 808,
      "ground</w>": 809,
      "surp": 810,
      "surpri": 811,
      "ise</w>": 812,
      "lucy</w>": 813,
      "ine</w>": 814,
      "hard</w>": 815,
      "mea": 816,
      "ster</w>": 817,
      "run": 818,
      "family</w>": 819,
      "hurt</w>": 820,
      "sun</w>": 821,
      "flew</w>": 822,
      "con": 823,
      "bad</w>": 824,
      "called</w>": 825,
      "yed</w>": 826,
      "brave</w>": 827,
      "imp": 828,
      "share</w>": 829,
      "while</w>": 830,
      "ol</w>": 831,
      "fast</w>": 832,
      "ide": 833,
      "pe</w>": 834,
      "fore</w>": 835,
      "before</w>": 836,
      "reat</w>": 837,
      "cra": 838,
      "kept</w>": 839,
      "dded</w>": 840,
      "ac": 841,
      "du": 842,
      "nex": 843,
      "pretty</w>": 844,
      "win": 845,
      "fish</w>": 846,
      "going</w>": 847,
      "show": 848,
      "dra": 849,
      "john</w>": 850,
      "lot</w>": 851,
      "next</w>": 852,
      "why</w>": 853,
      "shiny</w>": 854,
      "ring</w>": 855,
      "noise</w>": 856,
      "cli": 857,
      "adven": 858,
      "should</w>": 859,
      "opened</w>": 860,
      "run</w>": 861,
      "per": 862,
      "ye</w>": 863,
      "kit": 864,
      "also</w>": 865,
      "door</w>": 866,
      "grand": 867,
      "dly</w>": 868,
      "ner</w>": 869,
      "lue</w>": 870,
      "han": 871,
      "explore</w>": 872,
      "hug</w>": 873,
      "colo": 874,
      "idea</w>": 875,
      "€™</w>": 876,
      "tra": 877,
      "nodded</w>": 878,
      "vo": 879,
      "keep</w>": 880,
      "ve": 881,
      "feeling</w>": 882,
      "has</w>": 883,
      "picked</w>": 884,
      "may": 885,
      "walking</w>": 886,
      "plea": 887,
      "ons</w>": 888,
      "che": 889,
      "maybe</w>": 890,
      "noti": 891,
      "ries</w>": 892,
      "being</w>": 893,
      "ce": 894,
      "stu": 895,
      "tou": 896,
      "cha": 897,
      "tch</w>": 898,
      "goo": 899,
      "smile</w>": 900,
      "need</w>": 901,
      "ji": 902,
      "mum</w>": 903,
      "tal": 904,
      "looking</w>": 905,
      "finally</w>": 906,
      "bye</w>": 907,
      "rep": 908,
      "show</w>": 909,
      "memb": 910,
      "dre": 911,
      "jump": 912,
      "rememb": 913,
      "here</w>": 914,
      "eyes</w>": 915,
      "food</w>": 916,
      "brea": 917,
      "flowers</w>": 918,
      "sue</w>": 919,
      "stopped</w>": 920,
      "blue</w>": 921,
      "won": 922,
      "lean</w>": 923,
      "cho": 924,
      "ious</w>": 925,
      "enny</w>": 926,
      "enjo": 927,
      "great</w>": 928,
      "bob</w>": 929,
      "ate</w>": 930,
      "ort": 931,
      "cked</w>": 932,
      "gla": 933,
      "clean</w>": 934,
      "shar": 935,
      "import": 936,
      "hands</w>": 937,
      "hand</w>": 938,
      "set</w>": 939,
      "lied</w>": 940,
      "deli": 941,
      "ents</w>": 942,
      "shou": 943,
      "place</w>": 944,
      "work</w>": 945,
      "noticed</w>": 946,
      "sha": 947,
      "tin": 948,
      "ined</w>": 949,
      "good": 950,
      "listen</w>": 951,
      "head</w>": 952,
      "slide</w>": 953,
      "rying</w>": 954,
      "forest</w>": 955,
      "ent": 956,
      "rabb": 957,
      "important</w>": 958,
      "fol": 959,
      "ah</w>": 960,
      "ama": 961,
      "ffer": 962,
      "replied</w>": 963,
      "ding</w>": 964,
      "nee": 965,
      "night</w>": 966,
      "showed</w>": 967,
      "ser</w>": 968,
      "ms</w>": 969,
      "differ": 970,
      "bbed</w>": 971,
      "truck</w>": 972,
      "squ": 973,
      "ears</w>": 974,
      "per</w>": 975,
      "mp</w>": 976,
      "lo</w>": 977,
      "sarah</w>": 978,
      "please</w>": 979,
      "ter": 980,
      "bed</w>": 981,
      "stay</w>": 982,
      "ger</w>": 983,
      "row</w>": 984,
      "watched</w>": 985,
      "goodbye</w>": 986,
      "cket</w>": 987,
      "ckly</w>": 988,
      "face</w>": 989,
      "reali": 990,
      "rabbit</w>": 991,
      "fir": 992,
      "yu": 993,
      "walk</w>": 994,
      "tion</w>": 995,
      "dan": 996,
      "curi": 997,
      "voice</w>": 998,
      "quickly</w>": 999,
      "been</w>": 1000,
      "tter": 1001,
      "daddy</w>": 1002,
      "ment</w>": 1003,
      "hello</w>": 1004,
      "able</w>": 1005,
      "wr": 1006,
      "different</w>": 1007,
      "store</w>": 1008,
      "became</w>": 1009,
      "first</w>": 1010,
      "stop</w>": 1011,
      "lee": 1012,
      "high</w>": 1013,
      "jane</w>": 1014,
      "ange</w>": 1015,
      "tures</w>": 1016,
      "ey</w>": 1017,
      "ready</w>": 1018,
      "closer</w>": 1019,
      "dro": 1020,
      "cake</w>": 1021,
      "blo": 1022,
      "curious</w>": 1023,
      "am</w>": 1024,
      "yel": 1025,
      "grandma</w>": 1026,
      "lila</w>": 1027,
      "wonder": 1028,
      "wait</w>": 1029,
      "fav": 1030,
      "ow": 1031,
      "three</w>": 1032,
      "anymore</w>": 1033,
      "mean</w>": 1034,
      "swee": 1035,
      "boat</w>": 1036,
      "hole</w>": 1037,
      "only</w>": 1038,
      "rough</w>": 1039,
      "flower</w>": 1040,
      "us</w>": 1041,
      "bunny</w>": 1042,
      "book</w>": 1043,
      "under": 1044,
      "doll</w>": 1045,
      "strong</w>": 1046,
      "grabbed</w>": 1047,
      "does</w>": 1048,
      "lls</w>": 1049,
      "times</w>": 1050,
      "table</w>": 1051,
      "her": 1052,
      "cla": 1053,
      "fell</w>": 1054,
      "isy</w>": 1055,
      "birds</w>": 1056,
      "ins</w>": 1057,
      "chen</w>": 1058,
      "kitchen</w>": 1059,
      "warm</w>": 1060,
      "story</w>": 1061,
      "dow</w>": 1062,
      "pon": 1063,
      "jumped</w>": 1064,
      "glad</w>": 1065,
      "helped</w>": 1066,
      "sna": 1067,
      "adventure</w>": 1068,
      "read</w>": 1069,
      "kno": 1070,
      "sees</w>": 1071,
      "see": 1072,
      "prin": 1073,
      "fini": 1074,
      "bar": 1075,
      "happened</w>": 1076,
      "din": 1077,
      "cry</w>": 1078,
      "shi": 1079,
      "cor": 1080,
      "shouted</w>": 1081,
      "under</w>": 1082,
      "dress</w>": 1083,
      "yummy</w>": 1084,
      "pret": 1085,
      "sing</w>": 1086,
      "tommy</w>": 1087,
      "tting</w>": 1088,
      "having</w>": 1089,
      "ste": 1090,
      "reached</w>": 1091,
      "far": 1092,
      "realized</w>": 1093,
      "care</w>": 1094,
      "really</w>": 1095,
      "joe</w>": 1096,
      "lowed</w>": 1097,
      "grass</w>": 1098,
      "watch</w>": 1099,
      "bright</w>": 1100,
      "open</w>": 1101,
      "sy</w>": 1102,
      "ssed</w>": 1103,
      "used</w>": 1104,
      "thers</w>": 1105,
      "sm": 1106,
      "favor": 1107,
      "andy</w>": 1108,
      "bit</w>": 1109,
      "tre": 1110,
      "rock</w>": 1111,
      "favorite</w>": 1112,
      "coming</w>": 1113,
      "game</w>": 1114,
      "happi": 1115,
      "zy</w>": 1116,
      "ids</w>": 1117,
      "ele": 1118,
      "rse</w>": 1119,
      "gan</w>": 1120,
      "looks</w>": 1121,
      "ran": 1122,
      "magi": 1123,
      "cre": 1124,
      "wow</w>": 1125,
      "through</w>": 1126,
      "ink</w>": 1127,
      "kids</w>": 1128,
      "ken</w>": 1129,
      "hun": 1130,
      "ph": 1131,
      "cook": 1132,
      "vi": 1133,
      "mor": 1134,
      "learn</w>": 1135,
      "done</w>": 1136,
      "dar": 1137,
      "cooki": 1138,
      "lady</w>": 1139,
      "began</w>": 1140,
      "making</w>": 1141,
      "nu": 1142,
      "sometimes</w>": 1143,
      "butter": 1144,
      "mself</w>": 1145,
      "himself</w>": 1146,
      "stle</w>": 1147,
      "fully</w>": 1148,
      "world</w>": 1149,
      "than</w>": 1150,
      "cars</w>": 1151,
      "lie": 1152,
      "promi": 1153,
      "waved</w>": 1154,
      "ws</w>": 1155,
      "floo": 1156,
      "mouse</w>": 1157,
      "pond</w>": 1158,
      "near</w>": 1159,
      "tor</w>": 1160,
      "ect</w>": 1161,
      "pain": 1162,
      "tired</w>": 1163,
      "app": 1164,
      "name</w>": 1165,
      "lan": 1166,
      "our": 1167,
      "we": 1168,
      "stand</w>": 1169,
      "key</w>": 1170,
      "top</w>": 1171,
      "parents</w>": 1172,
      "funny</w>": 1173,
      "another</w>": 1174,
      "worry</w>": 1175,
      "cried</w>": 1176,
      "blocks</w>": 1177,
      "boo": 1178,
      "seen</w>": 1179,
      "tea": 1180,
      "daisy</w>": 1181,
      "green</w>": 1182,
      "ght": 1183,
      "tast": 1184,
      "doing</w>": 1185,
      "dri": 1186,
      "touch</w>": 1187,
      "surprise</w>": 1188,
      "less": 1189,
      "sally</w>": 1190,
      "catch</w>": 1191,
      "bui": 1192,
      "hopped</w>": 1193,
      "think</w>": 1194,
      "hind</w>": 1195,
      "soft</w>": 1196,
      "lon": 1197,
      "likes</w>": 1198,
      "behind</w>": 1199,
      "floor</w>": 1200,
      "swi": 1201,
      "paper</w>": 1202,
      "years</w>": 1203,
      "turned</w>": 1204,
      "lesson</w>": 1205,
      "brother</w>": 1206,
      "ps</w>": 1207,
      "cream</w>": 1208,
      "wished</w>": 1209,
      "trees</w>": 1210,
      "yellow</w>": 1211,
      "ppy</w>": 1212,
      "slee": 1213,
      "running</w>": 1214,
      "worked</w>": 1215,
      "full</w>": 1216,
      "pick</w>": 1217,
      "move</w>": 1218,
      "sco": 1219,
      "teddy</w>": 1220,
      "cro": 1221,
      "yard</w>": 1222,
      "bri": 1223,
      "ze</w>": 1224,
      "happily</w>": 1225,
      "benny</w>": 1226,
      "care": 1227,
      "surprised</w>": 1228,
      "mer</w>": 1229,
      "ough</w>": 1230,
      "lost</w>": 1231,
      "mb</w>": 1232,
      "baby</w>": 1233,
      "butterfly</w>": 1234,
      "carefully</w>": 1235,
      "tri": 1236,
      "cious</w>": 1237,
      "held</w>": 1238,
      "sun": 1239,
      "remembered</w>": 1240,
      "light</w>": 1241,
      "zing</w>": 1242,
      "needed</w>": 1243,
      "tell</w>": 1244,
      "ces</w>": 1245,
      "ching</w>": 1246,
      "cold</w>": 1247,
      "cool</w>": 1248,
      "wing</w>": 1249,
      "rel</w>": 1250,
      "cky</w>": 1251,
      "left</w>": 1252,
      "hear</w>": 1253,
      "dark</w>": 1254,
      "anything</w>": 1255,
      "climb": 1256,
      "trea": 1257,
      "billy</w>": 1258,
      "wrong</w>": 1259,
      "drea": 1260,
      "ren</w>": 1261,
      "child": 1262,
      "flu": 1263,
      "sat</w>": 1264,
      "picture</w>": 1265,
      "min": 1266,
      "children</w>": 1267,
      "enjoyed</w>": 1268,
      "ped</w>": 1269,
      "followed</w>": 1270,
      "agre": 1271,
      "ings</w>": 1272,
      "bel": 1273,
      "buy</w>": 1274,
      "ki": 1275,
      "arri": 1276,
      "dir": 1277,
      "sound</w>": 1278,
      "dge</w>": 1279,
      "wel": 1280,
      "someone</w>": 1281,
      "friendly</w>": 1282,
      "ask</w>": 1283,
      "delicious</w>": 1284,
      "finished</w>": 1285,
      "iting</w>": 1286,
      "close</w>": 1287,
      "herself</w>": 1288,
      "ming</w>": 1289,
      "contin": 1290,
      "continu": 1291,
      "ns</w>": 1292,
      "frog</w>": 1293,
      "zo": 1294,
      "lying</w>": 1295,
      "wer</w>": 1296,
      "everywhere</w>": 1297,
      "broken</w>": 1298,
      "gent": 1299,
      "window</w>": 1300,
      "amy</w>": 1301,
      "rain</w>": 1302,
      "molly</w>": 1303,
      "else</w>": 1304,
      "hear": 1305,
      "stick</w>": 1306,
      "fla": 1307,
      "squir": 1308,
      "arrived</w>": 1309,
      "colors</w>": 1310,
      "own</w>": 1311,
      "wonderful</w>": 1312,
      "stea": 1313,
      "swing</w>": 1314,
      "ens</w>": 1315,
      "most</w>": 1316,
      "wind</w>": 1317,
      "gone</w>": 1318,
      "erous</w>": 1319,
      "climb</w>": 1320,
      "books</w>": 1321,
      "coun": 1322,
      "sweet</w>": 1323,
      "filled</w>": 1324,
      "wants</w>": 1325,
      "wards</w>": 1326,
      "ches</w>": 1327,
      "ten</w>": 1328,
      "everything</w>": 1329,
      "sn</w>": 1330,
      "lion</w>": 1331,
      "bag</w>": 1332,
      "agreed</w>": 1333,
      "castle</w>": 1334,
      "hill</w>": 1335,
      "mother</w>": 1336,
      "met</w>": 1337,
      "pink</w>": 1338,
      "tall</w>": 1339,
      "continued</w>": 1340,
      "later</w>": 1341,
      "leaves</w>": 1342,
      "jump</w>": 1343,
      "fru": 1344,
      "rful</w>": 1345,
      "lau": 1346,
      "fire</w>": 1347,
      "getting</w>": 1348,
      "understand</w>": 1349,
      "woo": 1350,
      "enough</w>": 1351,
      "far</w>": 1352,
      "pes</w>": 1353,
      "mama</w>": 1354,
      "cookies</w>": 1355,
      "oh</w>": 1356,
      "ing": 1357,
      "late</w>": 1358,
      "morning</w>": 1359,
      "stre": 1360,
      "poin": 1361,
      "ence</w>": 1362,
      "hot</w>": 1363,
      "stayed</w>": 1364,
      "sig": 1365,
      "swa": 1366,
      "hung": 1367,
      "lding</w>": 1368,
      "laugh</w>": 1369,
      "spar": 1370,
      "hon": 1371,
      "hair</w>": 1372,
      "scary</w>": 1373,
      "hungry</w>": 1374,
      "bow</w>": 1375,
      "forgot</w>": 1376,
      "today</w>": 1377,
      "mess</w>": 1378,
      "ride</w>": 1379,
      "dinner</w>": 1380,
      "vis": 1381,
      "makes</w>": 1382,
      "beach</w>": 1383,
      "others</w>": 1384,
      "trying</w>": 1385,
      "wet</w>": 1386,
      "lla": 1387,
      "few</w>": 1388,
      "amazing</w>": 1389,
      "cle": 1390,
      "bal": 1391,
      "climbed</w>": 1392,
      "pictures</w>": 1393,
      "smiles</w>": 1394,
      "joy</w>": 1395,
      "listened</w>": 1396,
      "squirrel</w>": 1397,
      "perf": 1398,
      "gon</w>": 1399,
      "asks</w>": 1400,
      "ses</w>": 1401,
      "white</w>": 1402,
      "ballo": 1403,
      "clothe": 1404,
      "air</w>": 1405,
      "clothes</w>": 1406,
      "jill</w>": 1407,
      "eld</w>": 1408,
      "ral</w>": 1409,
      "leave</w>": 1410,
      "dang": 1411,
      "talk</w>": 1412,
      "alone</w>": 1413,
      "fix</w>": 1414,
      "puppy</w>": 1415,
      "moment</w>": 1416,
      "lie</w>": 1417,
      "cle</w>": 1418,
      "ught</w>": 1419,
      "tail</w>": 1420,
      "roa": 1421,
      "rought</w>": 1422,
      "brought</w>": 1423,
      "smel": 1424,
      "pulled</w>": 1425,
      "poli": 1426,
      "sear": 1427,
      "well</w>": 1428,
      "shel": 1429,
      "ffy</w>": 1430,
      "duck</w>": 1431,
      "fox</w>": 1432,
      "strange</w>": 1433,
      "pen": 1434,
      "cut</w>": 1435,
      "woods</w>": 1436,
      "wl</w>": 1437,
      "moral</w>": 1438,
      "sting</w>": 1439,
      "ket</w>": 1440,
      "iry</w>": 1441,
      "cess</w>": 1442,
      "zz": 1443,
      "might</w>": 1444,
      "pping</w>": 1445,
      "sit": 1446,
      "mag": 1447,
      "waited</w>": 1448,
      "wasn</w>": 1449,
      "fluffy</w>": 1450,
      "musi": 1451,
      "disa": 1452,
      "slow": 1453,
      "shes</w>": 1454,
      "turn</w>": 1455,
      "amazed</w>": 1456,
      "hide</w>": 1457,
      "tie</w>": 1458,
      "runs</w>": 1459,
      "towards</w>": 1460,
      "silly</w>": 1461,
      "won</w>": 1462,
      "thy</w>": 1463,
      "plan": 1464,
      "bla": 1465,
      "owner</w>": 1466,
      "que": 1467,
      "cal": 1468,
      "flying</w>": 1469,
      "spark": 1470,
      "thinks</w>": 1471,
      "living</w>": 1472,
      "shared</w>": 1473,
      "slowly</w>": 1474,
      "sted</w>": 1475,
      "draw</w>": 1476,
      "ser": 1477,
      "son</w>": 1478,
      "vy</w>": 1479,
      "promised</w>": 1480,
      "gro": 1481,
      "ber": 1482,
      "perfect</w>": 1483,
      "rel": 1484,
      "pretend</w>": 1485,
      "lthy</w>": 1486,
      "cti": 1487,
      "race</w>": 1488,
      "wear</w>": 1489,
      "job</w>": 1490,
      "belie": 1491,
      "mary</w>": 1492,
      "tain</w>": 1493,
      "tel": 1494,
      "spi": 1495,
      "lake</w>": 1496,
      "sca": 1497,
      "gger</w>": 1498,
      "deep</w>": 1499,
      "party</w>": 1500,
      "money</w>": 1501,
      "sand</w>": 1502,
      "answ": 1503,
      "smar": 1504,
      "ven</w>": 1505,
      "piec": 1506,
      "pieces</w>": 1507,
      "rain": 1508,
      "soun": 1509,
      "faster</w>": 1510,
      "pet</w>": 1511,
      "bran": 1512,
      "colorful</w>": 1513,
      "sno": 1514,
      "worried</w>": 1515,
      "even": 1516,
      "spla": 1517,
      "ddle</w>": 1518,
      "sand": 1519,
      "back": 1520,
      "dance</w>": 1521,
      "broke</w>": 1522,
      "candy</w>": 1523,
      "teful</w>": 1524,
      "grateful</w>": 1525,
      "monster</w>": 1526,
      "expla": 1527,
      "cal</w>": 1528,
      "bigger</w>": 1529,
      "remember</w>": 1530,
      "welcome</w>": 1531,
      "wings</w>": 1532,
      "bug</w>": 1533,
      "lun": 1534,
      "hi</w>": 1535,
      "em": 1536,
      "such</w>": 1537,
      "sign</w>": 1538,
      "blan": 1539,
      "board</w>": 1540,
      "ssi": 1541,
      "brown</w>": 1542,
      "train</w>": 1543,
      "inging</w>": 1544,
      "visit</w>": 1545,
      "mou": 1546,
      "bike</w>": 1547,
      "sit</w>": 1548,
      "igh": 1549,
      "dangerous</w>": 1550,
      "words</w>": 1551,
      "ban": 1552,
      "helping</w>": 1553,
      "farmer</w>": 1554,
      "uni": 1555,
      "magical</w>": 1556,
      "princess</w>": 1557,
      "sister</w>": 1558,
      "lt</w>": 1559,
      "music</w>": 1560,
      "sleep</w>": 1561,
      "acro": 1562,
      "ap": 1563,
      "dry</w>": 1564,
      "dolls</w>": 1565,
      "smart</w>": 1566,
      "rew</w>": 1567,
      "pas": 1568,
      "ci": 1569,
      "tower</w>": 1570,
      "across</w>": 1571,
      "pati": 1572,
      "mine</w>": 1573,
      "tually</w>": 1574,
      "snow": 1575,
      "reach</w>": 1576,
      "disapp": 1577,
      "dirty</w>": 1578,
      "dragon</w>": 1579,
      "heavy</w>": 1580,
      "join</w>": 1581,
      "twins</w>": 1582,
      "doc": 1583,
      "year</w>": 1584,
      "threw</w>": 1585,
      "crying</w>": 1586,
      "ours</w>": 1587,
      "eating</w>": 1588,
      "bite</w>": 1589,
      "stra": 1590,
      "same</w>": 1591,
      "with": 1592,
      "believe</w>": 1593,
      "stepped</w>": 1594,
      "tight</w>": 1595,
      "wall</w>": 1596,
      "oc": 1597,
      "ged</w>": 1598,
      "jimmy</w>": 1599,
      "eared</w>": 1600,
      "carro": 1601,
      "col": 1602,
      "river</w>": 1603,
      "field</w>": 1604,
      "san": 1605,
      "mummy</w>": 1606,
      "pra": 1607,
      "closed</w>": 1608,
      "wea": 1609,
      "song</w>": 1610,
      "wou": 1611,
      "start</w>": 1612,
      "balloon</w>": 1613,
      "stuck</w>": 1614,
      "hoped</w>": 1615,
      "ely</w>": 1616,
      "vely</w>": 1617,
      "feels</w>": 1618,
      "without</w>": 1619,
      "mil": 1620,
      "scho": 1621,
      "quiet</w>": 1622,
      "cray": 1623,
      "fur": 1624,
      "chair</w>": 1625,
      "school</w>": 1626,
      "bask": 1627,
      "ones</w>": 1628,
      "est</w>": 1629,
      "bowl</w>": 1630,
      "fairy</w>": 1631,
      "age</w>": 1632,
      "ben": 1633,
      "fre": 1634,
      "swim</w>": 1635,
      "course</w>": 1636,
      "ises</w>": 1637,
      "mouth</w>": 1638,
      "shing</w>": 1639,
      "emma</w>": 1640,
      "ece</w>": 1641,
      "chee": 1642,
      "clapped</w>": 1643,
      "town</w>": 1644,
      "can": 1645,
      "black</w>": 1646,
      "stood</w>": 1647,
      "wouldn</w>": 1648,
      "xed</w>": 1649,
      "comfor": 1650,
      "must</w>": 1651,
      "cher</w>": 1652,
      "piece</w>": 1653,
      "foo": 1654,
      "tted</w>": 1655,
      "phone</w>": 1656,
      "lar": 1657,
      "pushed</w>": 1658,
      "doctor</w>": 1659,
      "child</w>": 1660,
      "gentle</w>": 1661,
      "plane</w>": 1662,
      "paint</w>": 1663,
      "smo": 1664,
      "drove</w>": 1665,
      "neigh": 1666,
      "ess</w>": 1667,
      "gher</w>": 1668,
      "youn": 1669,
      "animal</w>": 1670,
      "cing</w>": 1671,
      "cid": 1672,
      "drin": 1673,
      "swings</w>": 1674,
      "break</w>": 1675,
      "ray</w>": 1676,
      "har": 1677,
      "eventually</w>": 1678,
      "ski": 1679,
      "higher</w>": 1680,
      "shine</w>": 1681,
      "accid": 1682,
      "blanket</w>": 1683,
      "magic</w>": 1684,
      "near": 1685,
      "along</w>": 1686,
      "bee</w>": 1687,
      "sau": 1688,
      "yst": 1689,
      "games</w>": 1690,
      "noises</w>": 1691,
      "teacher</w>": 1692,
      "hugs</w>": 1693,
      "explained</w>": 1694,
      "treasure</w>": 1695,
      "moved</w>": 1696,
      "tes</w>": 1697,
      "turns</w>": 1698,
      "longer</w>": 1699,
      "zi": 1700,
      "cheered</w>": 1701,
      "pea": 1702,
      "build</w>": 1703,
      "lf</w>": 1704,
      "rn</w>": 1705,
      "hold</w>": 1706,
      "ary</w>": 1707,
      "sang</w>": 1708,
      "rt</w>": 1709,
      "enjoy</w>": 1710,
      "preten": 1711,
      "jour": 1712,
      "comp": 1713,
      "mit": 1714,
      "trou": 1715,
      "shoes</w>": 1716,
      "sou": 1717,
      "singing</w>": 1718,
      "though</w>": 1719,
      "tiny</w>": 1720,
      "stories</w>": 1721,
      "instea": 1722,
      "instead</w>": 1723,
      "vered</w>": 1724,
      "ton</w>": 1725,
      "pa</w>": 1726,
      "lonely</w>": 1727,
      "wise</w>": 1728,
      "adventures</w>": 1729,
      "ite": 1730,
      "tly</w>": 1731,
      "wish</w>": 1732,
      "fence</w>": 1733,
      "upset</w>": 1734,
      "anded</w>": 1735,
      "monkey</w>": 1736,
      "fore": 1737,
      "ler</w>": 1738,
      "apple</w>": 1739,
      "secre": 1740,
      "ta</w>": 1741,
      "shook</w>": 1742,
      "stars</w>": 1743,
      "spa": 1744,
      "ssy</w>": 1745,
      "young</w>": 1746,
      "owl</w>": 1747,
      "star</w>": 1748,
      "nothing</w>": 1749,
      "ney</w>": 1750,
      "land</w>": 1751,
      "naugh": 1752,
      "naughty</w>": 1753,
      "lunch</w>": 1754,
      "soup</w>": 1755,
      "fire": 1756,
      "fused</w>": 1757,
      "jar</w>": 1758,
      "lay</w>": 1759,
      "nearby</w>": 1760,
      "caught</w>": 1761,
      "exploring</w>": 1762,
      "taking</w>": 1763,
      "purp": 1764,
      "sammy</w>": 1765,
      "purple</w>": 1766,
      "pocket</w>": 1767,
      "sea</w>": 1768,
      "lec": 1769,
      "rocks</w>": 1770,
      "fight</w>": 1771,
      "dropped</w>": 1772,
      "ought</w>": 1773,
      "forget</w>": 1774,
      "sunny</w>": 1775,
      "woke</w>": 1776,
      "backyard</w>": 1777,
      "patient</w>": 1778,
      "shapes</w>": 1779,
      "orange</w>": 1780,
      "seemed</w>": 1781,
      "boun": 1782,
      "swam</w>": 1783,
      "sai": 1784,
      "days</w>": 1785,
      "when": 1786,
      "whenever</w>": 1787,
      "body</w>": 1788,
      "heart</w>": 1789,
      "comes</w>": 1790,
      "relie": 1791,
      "bench</w>": 1792,
      "sur": 1793,
      "tive</w>": 1794,
      "hit</w>": 1795,
      "fit</w>": 1796,
      "nap</w>": 1797,
      "street</w>": 1798,
      "ra</w>": 1799,
      "screa": 1800,
      "juice</w>": 1801,
      "ughter</w>": 1802,
      "sounds</w>": 1803,
      "ggled</w>": 1804,
      "fall</w>": 1805,
      "takes</w>": 1806,
      "lucky</w>": 1807,
      "val": 1808,
      "busy</w>": 1809,
      "ali": 1810,
      "nose</w>": 1811,
      "real</w>": 1812,
      "sitting</w>": 1813,
      "arms</w>": 1814,
      "ship</w>": 1815,
      "snow</w>": 1816,
      "follow</w>": 1817,
      "holding</w>": 1818,
      "mr</w>": 1819,
      "mad</w>": 1820,
      "ward</w>": 1821,
      "corn</w>": 1822,
      "arm</w>": 1823,
      "ghtly</w>": 1824,
      "twee": 1825,
      "kite</w>": 1826,
      "birth": 1827,
      "wondered</w>": 1828,
      "swim": 1829,
      "cking</w>": 1830,
      "pull</w>": 1831,
      "farm</w>": 1832,
      "cir": 1833,
      "birthday</w>": 1834,
      "sol": 1835,
      "je": 1836,
      "daughter</w>": 1837,
      "clu": 1838,
      "loves</w>": 1839,
      "bob": 1840,
      "branch</w>": 1841,
      "driver</w>": 1842,
      "va": 1843,
      "raid</w>": 1844,
      "afraid</w>": 1845,
      "round</w>": 1846,
      "eleph": 1847,
      "kin": 1848,
      "elephant</w>": 1849,
      "ance</w>": 1850,
      "nest</w>": 1851,
      "bath": 1852,
      "less</w>": 1853,
      "basket</w>": 1854,
      "cute</w>": 1855,
      "cheese</w>": 1856,
      "ping</w>": 1857,
      "secret</w>": 1858,
      "ceful</w>": 1859,
      "bee": 1860,
      "inter": 1861,
      "relieved</w>": 1862,
      "bucket</w>": 1863,
      "promise</w>": 1864,
      "forever</w>": 1865,
      "soa": 1866,
      "erful</w>": 1867,
      "gift</w>": 1868,
      "bring</w>": 1869,
      "sick</w>": 1870,
      "att": 1871,
      "touched</w>": 1872,
      "hey</w>": 1873,
      "pot</w>": 1874,
      "kne": 1875,
      "tens</w>": 1876,
      "honey</w>": 1877,
      "ountain</w>": 1878,
      "rainbow</w>": 1879,
      "wra": 1880,
      "bubb": 1881,
      "excite": 1882,
      "ble": 1883,
      "jenny</w>": 1884,
      "dream</w>": 1885,
      "huge</w>": 1886,
      "drink</w>": 1887,
      "bread</w>": 1888,
      "irs</w>": 1889,
      "spoon</w>": 1890,
      "sa</w>": 1891,
      "onto</w>": 1892,
      "imag": 1893,
      "laughing</w>": 1894,
      "life</w>": 1895,
      "twi": 1896,
      "ig": 1897,
      "gives</w>": 1898,
      "intere": 1899,
      "oth</w>": 1900,
      "sc": 1901,
      "fea": 1902,
      "ongs</w>": 1903,
      "exciting</w>": 1904,
      "swimming</w>": 1905,
      "coo": 1906,
      "lace</w>": 1907,
      "bottle</w>": 1908,
      "cozy</w>": 1909,
      "ation</w>": 1910,
      "ery</w>": 1911,
      "bru": 1912,
      "emily</w>": 1913,
      "milk</w>": 1914,
      "disco": 1915,
      "accident": 1916,
      "stor": 1917,
      "tent</w>": 1918,
      "mittens</w>": 1919,
      "suc": 1920,
      "clean": 1921,
      "puts</w>": 1922,
      "sunshine</w>": 1923,
      "bush</w>": 1924,
      "accidentally</w>": 1925,
      "watching</w>": 1926,
      "cave</w>": 1927,
      "jun": 1928,
      "jen</w>": 1929,
      "pointed</w>": 1930,
      "treat</w>": 1931,
      "hope</w>": 1932,
      "ples</w>": 1933,
      "ort</w>": 1934,
      "plan</w>": 1935,
      "ose</w>": 1936,
      "neighbo": 1937,
      "eg": 1938,
      "sharp</w>": 1939,
      "mark</w>": 1940,
      "pow": 1941,
      "tton</w>": 1942,
      "grow</w>": 1943,
      "ducks</w>": 1944,
      "mber</w>": 1945,
      "talked</w>": 1946,
      "sea": 1947,
      "smiling</w>": 1948,
      "clou": 1949,
      "journey</w>": 1950,
      "collec": 1951,
      "jim</w>": 1952,
      "part</w>": 1953,
      "anyone</w>": 1954,
      "apples</w>": 1955,
      "ow</w>": 1956,
      "woman</w>": 1957,
      "icy</w>": 1958,
      "searched</w>": 1959,
      "these</w>": 1960,
      "word</w>": 1961,
      "bought</w>": 1962,
      "proble": 1963,
      "stru": 1964,
      "mach": 1965,
      "sandwi": 1966,
      "spid": 1967,
      "healthy</w>": 1968,
      "free</w>": 1969,
      "rope</w>": 1970,
      "sie</w>": 1971,
      "coat</w>": 1972,
      "crayons</w>": 1973,
      "ening</w>": 1974,
      "mous</w>": 1975,
      "llar</w>": 1976,
      "pile</w>": 1977,
      "shelf</w>": 1978,
      "win</w>": 1979,
      "lies</w>": 1980,
      "il": 1981,
      "button</w>": 1982,
      "snowman</w>": 1983,
      "interesting</w>": 1984,
      "fr": 1985,
      "inv": 1986,
      "wide</w>": 1987,
      "tasty</w>": 1988,
      "fal": 1989,
      "clouds</w>": 1990,
      "anding</w>": 1991,
      "respec": 1992,
      "villa": 1993,
      "pres": 1994,
      "smelled</w>": 1995,
      "earing</w>": 1996,
      "fair</w>": 1997,
      "mind</w>": 1998,
      "grandpa</w>": 1999,
      "fted</w>": 2000,
      "clever</w>": 2001,
      "storm</w>": 2002,
      "shining</w>": 2003,
      "rose</w>": 2004,
      "fron": 2005,
      "thi": 2006,
      "comfortable</w>": 2007,
      "prot": 2008,
      "dea": 2009,
      "front</w>": 2010,
      "which</w>": 2011,
      "screamed</w>": 2012,
      "valu": 2013,
      "person</w>": 2014,
      "lder</w>": 2015,
      "lli": 2016,
      "ness</w>": 2017,
      "tries</w>": 2018,
      "phi": 2019,
      "mud</w>": 2020,
      "gani": 2021,
      "practi": 2022,
      "trouble</w>": 2023,
      "admi": 2024,
      "organi": 2025,
      "shy</w>": 2026,
      "jake</w>": 2027,
      "snake</w>": 2028,
      "puzz": 2029,
      "man": 2030,
      "cur": 2031,
      "gge": 2032,
      "shop</w>": 2033,
      "spotted</w>": 2034,
      "figh": 2035,
      "cup</w>": 2036,
      "berries</w>": 2037,
      "myst": 2038,
      "lock</w>": 2039,
      "snack</w>": 2040,
      "minu": 2041,
      "dis": 2042,
      "gently</w>": 2043,
      "danced</w>": 2044,
      "lisa</w>": 2045,
      "road</w>": 2046,
      "goes</w>": 2047,
      "net</w>": 2048,
      "lit</w>": 2049,
      "lovely</w>": 2050,
      "appeared</w>": 2051,
      "gle</w>": 2052,
      "leep</w>": 2053,
      "asleep</w>": 2054,
      "horse</w>": 2055,
      "sigh": 2056,
      "questi": 2057,
      "lar</w>": 2058,
      "rolled</w>": 2059,
      "answer</w>": 2060,
      "wearing</w>": 2061,
      "fruit</w>": 2062,
      "confused</w>": 2063,
      "kee": 2064,
      "whole</w>": 2065,
      "dist": 2066,
      "forgive</w>": 2067,
      "tun": 2068,
      "path</w>": 2069,
      "sharing</w>": 2070,
      "kis": 2071,
      "places</w>": 2072,
      "colou": 2073,
      "impre": 2074,
      "ean</w>": 2075,
      "corner</w>": 2076,
      "deer</w>": 2077,
      "gen": 2078,
      "tee": 2079,
      "depen": 2080,
      "teeth</w>": 2081,
      "rich</w>": 2082,
      "ur": 2083,
      "zzy</w>": 2084,
      "dirt</w>": 2085,
      "char": 2086,
      "standing</w>": 2087,
      "ats</w>": 2088,
      "ya": 2089,
      "matter</w>": 2090,
      "tle</w>": 2091,
      "rude</w>": 2092,
      "flo": 2093,
      "supp": 2094,
      "giant</w>": 2095,
      "wave</w>": 2096,
      "gate</w>": 2097,
      "spider</w>": 2098,
      "tasted</w>": 2099,
      "pretended</w>": 2100,
      "cookie</w>": 2101,
      "wild</w>": 2102,
      "bles</w>": 2103,
      "sses</w>": 2104,
      "machine</w>": 2105,
      "pper</w>": 2106,
      "pee": 2107,
      "dder</w>": 2108,
      "ocean</w>": 2109,
      "sty</w>": 2110,
      "nor": 2111,
      "picni": 2112,
      "spent</w>": 2113,
      "tomor": 2114,
      "kitty</w>": 2115,
      "true</w>": 2116,
      "furry</w>": 2117,
      "medi": 2118,
      "tomorrow</w>": 2119,
      "faces</w>": 2120,
      "oven</w>": 2121,
      "fighting</w>": 2122,
      "zoo</w>": 2123,
      "feet</w>": 2124,
      "nie</w>": 2125,
      "mista": 2126,
      "throw</w>": 2127,
      "choco": 2128,
      "problem</w>": 2129,
      "bs</w>": 2130,
      "peter</w>": 2131,
      "push</w>": 2132,
      "pack</w>": 2133,
      "ans</w>": 2134,
      "helpful</w>": 2135,
      "test</w>": 2136,
      "couch</w>": 2137,
      "smell</w>": 2138,
      "cer</w>": 2139,
      "last</w>": 2140,
      "drive</w>": 2141,
      "slow</w>": 2142,
      "bugs</w>": 2143,
      "cow</w>": 2144,
      "picnic</w>": 2145,
      "coin</w>": 2146,
      "talking</w>": 2147,
      "emb": 2148,
      "ladder</w>": 2149,
      "wha": 2150,
      "lance</w>": 2151,
      "ets</w>": 2152,
      "wel</w>": 2153,
      "write</w>": 2154,
      "building</w>": 2155,
      "robo": 2156,
      "happen</w>": 2157,
      "wore</w>": 2158,
      "cele": 2159,
      "village</w>": 2160,
      "hiding</w>": 2161,
      "neck": 2162,
      "fur</w>": 2163,
      "puddle</w>": 2164,
      "knee</w>": 2165,
      "els</w>": 2166,
      "chased</w>": 2167,
      "grab</w>": 2168,
      "trip</w>": 2169,
      "call</w>": 2170,
      "calm</w>": 2171,
      "cage</w>": 2172,
      "blew</w>": 2173,
      "ges</w>": 2174,
      "waiting</w>": 2175,
      "line</w>": 2176,
      "off": 2177,
      "finish</w>": 2178,
      "ff</w>": 2179,
      "chocolate</w>": 2180,
      "treats</w>": 2181,
      "pool</w>": 2182,
      "banan": 2183,
      "cannot</w>": 2184,
      "embar": 2185,
      "sack</w>": 2186,
      "vel</w>": 2187,
      "chick": 2188,
      "hop</w>": 2189,
      "embarra": 2190,
      "songs</w>": 2191,
      "string</w>": 2192,
      "taste</w>": 2193,
      "eel</w>": 2194,
      "bell</w>": 2195,
      "leaf</w>": 2196,
      "carrot</w>": 2197,
      "large</w>": 2198,
      "cup": 2199,
      "smooth</w>": 2200,
      "barked</w>": 2201,
      "selfish</w>": 2202,
      "mined</w>": 2203,
      "stone</w>": 2204,
      "plant</w>": 2205,
      "splash</w>": 2206,
      "sof": 2207,
      "shirt</w>": 2208,
      "cr": 2209,
      "fixed</w>": 2210,
      "wash</w>": 2211,
      "live</w>": 2212,
      "robot</w>": 2213,
      "cloth</w>": 2214,
      "mmer</w>": 2215,
      "gru": 2216,
      "letter</w>": 2217,
      "emp": 2218,
      "py</w>": 2219,
      "celebra": 2220,
      "gathe": 2221,
      "count</w>": 2222,
      "wee": 2223,
      "necklace</w>": 2224,
      "mpy</w>": 2225,
      "color</w>": 2226,
      "hid</w>": 2227,
      "hears</w>": 2228,
      "cloud</w>": 2229,
      "missed</w>": 2230,
      "spread</w>": 2231,
      "craw": 2232,
      "coura": 2233,
      "rex</w>": 2234,
      "bed": 2235,
      "johnny</w>": 2236,
      "seek</w>": 2237,
      "kiss</w>": 2238,
      "œi</w>": 2239,
      "sticks</w>": 2240,
      "tv</w>": 2241,
      "oin": 2242,
      "tro": 2243,
      "eng": 2244,
      "jungle</w>": 2245,
      "alice</w>": 2246,
      "scre": 2247,
      "tea</w>": 2248,
      "cora": 2249,
      "neighbor</w>": 2250,
      "pil": 2251,
      "seat</w>": 2252,
      "landed</w>": 2253,
      "creative</w>": 2254,
      "decora": 2255,
      "creature</w>": 2256,
      "jumping</w>": 2257,
      "peaceful</w>": 2258,
      "tidy</w>": 2259,
      "meet</w>": 2260,
      "deter": 2261,
      "rank</w>": 2262,
      "gray</w>": 2263,
      "band</w>": 2264,
      "tched</w>": 2265,
      "carrots</w>": 2266,
      "lowing</w>": 2267,
      "carry</w>": 2268,
      "ia</w>": 2269,
      "whistle</w>": 2270,
      "tic</w>": 2271,
      "moon</w>": 2272,
      "forward</w>": 2273,
      "embarrassed</w>": 2274,
      "teach</w>": 2275,
      "ert</w>": 2276,
      "bus</w>": 2277,
      "knocked</w>": 2278,
      "almost</w>": 2279,
      "anger</w>": 2280,
      "disappoin": 2281,
      "fan": 2282,
      "tells</w>": 2283,
      "your": 2284,
      "fra": 2285,
      "miss</w>": 2286,
      "past": 2287,
      "bur": 2288,
      "hamed</w>": 2289,
      "ashamed</w>": 2290,
      "ity</w>": 2291,
      "plate</w>": 2292,
      "legs</w>": 2293,
      "bl": 2294,
      "sk</w>": 2295,
      "vege": 2296,
      "tightly</w>": 2297,
      "stairs</w>": 2298,
      "save</w>": 2299,
      "grew</w>": 2300,
      "witch</w>": 2301,
      "meant</w>": 2302,
      "kitten</w>": 2303,
      "nods</w>": 2304,
      "ending</w>": 2305,
      "spit": 2306,
      "empty</w>": 2307,
      "ka": 2308,
      "understood</w>": 2309,
      "ob": 2310,
      "hard": 2311,
      "cy": 2312,
      "thank": 2313,
      "cel": 2314,
      "carried</w>": 2315,
      "protect</w>": 2316,
      "yelled</w>": 2317,
      "jel": 2318,
      "hospit": 2319,
      "honest</w>": 2320,
      "worm</w>": 2321,
      "hours</w>": 2322,
      "whisp": 2323,
      "br": 2324,
      "bloo": 2325,
      "disappointed</w>": 2326,
      "leo</w>": 2327,
      "crab</w>": 2328,
      "myster": 2329,
      "sheep</w>": 2330,
      "gets</w>": 2331,
      "hospital</w>": 2332,
      "andle</w>": 2333,
      "snacks</w>": 2334,
      "frustra": 2335,
      "usu": 2336,
      "sail</w>": 2337,
      "thu": 2338,
      "sparkly</w>": 2339,
      "tely</w>": 2340,
      "safe": 2341,
      "bath</w>": 2342,
      "pizz": 2343,
      "dol": 2344,
      "dden</w>": 2345,
      "flies</w>": 2346,
      "meadow</w>": 2347,
      "pri": 2348,
      "spicy</w>": 2349,
      "brush</w>": 2350,
      "breath</w>": 2351,
      "ants</w>": 2352,
      "poor</w>": 2353,
      "easy</w>": 2354,
      "sighed</w>": 2355,
      "gers</w>": 2356,
      "leta</w>": 2357,
      "hidden</w>": 2358,
      "balls</w>": 2359,
      "plants</w>": 2360,
      "bored</w>": 2361,
      "drew</w>": 2362,
      "taught</w>": 2363,
      "lling</w>": 2364,
      "scarf</w>": 2365,
      "ner": 2366,
      "puzzle</w>": 2367,
      "zoom</w>": 2368,
      "bubbles</w>": 2369,
      "cook</w>": 2370,
      "ze": 2371,
      "knowing</w>": 2372,
      "kin</w>": 2373,
      "ars</w>": 2374,
      "bedroom</w>": 2375,
      "polite</w>": 2376,
      "die</w>": 2377,
      "grou": 2378,
      "shore</w>": 2379,
      "pira": 2380,
      "mysterious</w>": 2381,
      "generous</w>": 2382,
      "sage</w>": 2383,
      "present</w>": 2384,
      "prince</w>": 2385,
      "radi": 2386,
      "wolf</w>": 2387,
      "pizza</w>": 2388,
      "frustrated</w>": 2389,
      "waves</w>": 2390,
      "shell</w>": 2391,
      "gly</w>": 2392,
      "sour</w>": 2393,
      "fle": 2394,
      "messy</w>": 2395,
      "minutes</w>": 2396,
      "tears</w>": 2397,
      "succe": 2398,
      "ffi": 2399,
      "mountain</w>": 2400,
      "packed</w>": 2401,
      "returned</w>": 2402,
      "nerv": 2403,
      "mer": 2404,
      "rro": 2405,
      "bit": 2406,
      "pou": 2407,
      "sleepy</w>": 2408,
      "finger</w>": 2409,
      "ut</w>": 2410,
      "closet</w>": 2411,
      "thankful</w>": 2412,
      "powerful</w>": 2413,
      "offi": 2414,
      "esca": 2415,
      "dness</w>": 2416,
      "bridge</w>": 2417,
      "roar</w>": 2418,
      "grumpy</w>": 2419,
      "susie</w>": 2420,
      "passed</w>": 2421,
      "ita</w>": 2422,
      "kissed</w>": 2423,
      "mble</w>": 2424,
      "ssing</w>": 2425,
      "block</w>": 2426,
      "cries</w>": 2427,
      "determined</w>": 2428,
      "fancy</w>": 2429,
      "yourself</w>": 2430,
      "sandwich</w>": 2431,
      "working</w>": 2432,
      "cater": 2433,
      "berry</w>": 2434,
      "remin": 2435,
      "thro": 2436,
      "gging</w>": 2437,
      "dino": 2438,
      "figu": 2439,
      "dinosau": 2440,
      "tables</w>": 2441,
      "mo</w>": 2442,
      "group</w>": 2443,
      "chest</w>": 2444,
      "ghts</w>": 2445,
      "gathered</w>": 2446,
      "selves</w>": 2447,
      "scis": 2448,
      "twir": 2449,
      "sors</w>": 2450,
      "ot</w>": 2451,
      "scissors</w>": 2452,
      "ensi": 2453,
      "often</w>": 2454,
      "kni": 2455,
      "roll</w>": 2456,
      "wood</w>": 2457,
      "stick": 2458,
      "gar</w>": 2459,
      "mbled</w>": 2460,
      "snu": 2461,
      "answered</w>": 2462,
      "ugly</w>": 2463,
      "case</w>": 2464,
      "des</w>": 2465,
      "cles</w>": 2466,
      "hero</w>": 2467,
      "rot</w>": 2468,
      "hopping</w>": 2469,
      "wed</w>": 2470,
      "card</w>": 2471,
      "pillar</w>": 2472,
      "caterpillar</w>": 2473,
      "ensive</w>": 2474,
      "saved</w>": 2475,
      "mail</w>": 2476,
      "cycle</w>": 2477,
      "mix</w>": 2478,
      "expensive</w>": 2479,
      "picks</w>": 2480,
      "gin": 2481,
      "taken</w>": 2482,
      "ella</w>": 2483,
      "wagged</w>": 2484,
      "cl": 2485,
      "queen</w>": 2486,
      "pig</w>": 2487,
      "spin</w>": 2488,
      "middle</w>": 2489,
      "excitement</w>": 2490,
      "boring</w>": 2491,
      "ero": 2492,
      "fine</w>": 2493,
      "medic": 2494,
      "obe": 2495,
      "vase</w>": 2496,
      "leg</w>": 2497,
      "known</w>": 2498,
      "ef</w>": 2499,
      "gar": 2500,
      "ton": 2501,
      "dancing</w>": 2502,
      "cei": 2503,
      "glass</w>": 2504,
      "cord</w>": 2505,
      "change</w>": 2506,
      "nervous</w>": 2507,
      "sugar</w>": 2508,
      "rocket</w>": 2509,
      "bone</w>": 2510,
      "cri": 2511,
      "im": 2512,
      "mistake</w>": 2513,
      "father</w>": 2514,
      "police</w>": 2515,
      "specially</w>": 2516,
      "pleased</w>": 2517,
      "giggled</w>": 2518,
      "usual</w>": 2519,
      "asking</w>": 2520,
      "especially</w>": 2521,
      "medicine</w>": 2522,
      "fruits</w>": 2523,
      "ight</w>": 2524,
      "feed</w>": 2525,
      "ar</w>": 2526,
      "bobby</w>": 2527,
      "fake</w>": 2528,
      "nea": 2529,
      "drawing</w>": 2530,
      "sweetie</w>": 2531,
      "vegetables</w>": 2532,
      "crown</w>": 2533,
      "walks</w>": 2534,
      "pain</w>": 2535,
      "dogs</w>": 2536,
      "match</w>": 2537,
      "locked</w>": 2538,
      "eggs</w>": 2539,
      "licked</w>": 2540,
      "distance</w>": 2541,
      "boys</w>": 2542,
      "moving</w>": 2543,
      "covered</w>": 2544,
      "number</w>": 2545,
      "dest": 2546,
      "tions</w>": 2547,
      "splashed</w>": 2548,
      "movi": 2549,
      "ird</w>": 2550,
      "lose</w>": 2551,
      "dru": 2552,
      "pin": 2553,
      "disappeared</w>": 2554,
      "smelly</w>": 2555,
      "feathers</w>": 2556,
      "bake</w>": 2557,
      "glue</w>": 2558,
      "wake</w>": 2559,
      "scra": 2560,
      "calling</w>": 2561,
      "rror</w>": 2562,
      "moms</w>": 2563,
      "lows</w>": 2564,
      "pay</w>": 2565,
      "gun</w>": 2566,
      "rela": 2567,
      "bathroom</w>": 2568,
      "bin</w>": 2569,
      "xes</w>": 2570,
      "lazy</w>": 2571,
      "nod</w>": 2572,
      "become</w>": 2573,
      "derly</w>": 2574,
      "iness</w>": 2575,
      "incre": 2576,
      "incredi": 2577,
      "respect</w>": 2578,
      "tape</w>": 2579,
      "pop": 2580,
      "iled</w>": 2581,
      "pete</w>": 2582,
      "noisy</w>": 2583,
      "micro": 2584,
      "missi": 2585,
      "cer": 2586,
      "hose</w>": 2587,
      "playground</w>": 2588,
      "elderly</w>": 2589,
      "toes</w>": 2590,
      "yours</w>": 2591,
      "ger": 2592,
      "questions</w>": 2593,
      "loy": 2594,
      "mirror</w>": 2595,
      "drank</w>": 2596,
      "ker</w>": 2597,
      "ellie</w>": 2598,
      "stones</w>": 2599,
      "form</w>": 2600,
      "ruined</w>": 2601,
      "giving</w>": 2602,
      "bby</w>": 2603,
      "famous</w>": 2604,
      "thanks</w>": 2605,
      "ggy</w>": 2606,
      "sugge": 2607,
      "too": 2608,
      "mandy</w>": 2609,
      "keeper</w>": 2610,
      "ll": 2611,
      "sist": 2612,
      "skipped</w>": 2613,
      "mana": 2614,
      "mail": 2615,
      "ggle</w>": 2616,
      "tiger</w>": 2617,
      "shows</w>": 2618,
      "stron": 2619,
      "penny</w>": 2620,
      "ckets</w>": 2621,
      "wro": 2622,
      "wrote</w>": 2623,
      "tches</w>": 2624,
      "juicy</w>": 2625,
      "decide</w>": 2626,
      "incredible</w>": 2627,
      "lamp</w>": 2628,
      "coins</w>": 2629,
      "ade</w>": 2630,
      "tan": 2631,
      "tball</w>": 2632,
      "eager</w>": 2633,
      "tub</w>": 2634,
      "towel</w>": 2635,
      "pillow</w>": 2636,
      "weak</w>": 2637,
      "chang": 2638,
      "those</w>": 2639,
      "mel": 2640,
      "blu": 2641,
      "sailed</w>": 2642,
      "migh": 2643,
      "ffed</w>": 2644,
      "cleaned</w>": 2645,
      "flag</w>": 2646,
      "needs</w>": 2647,
      "tor": 2648,
      "wheel</w>": 2649,
      "ie</w>": 2650,
      "rous</w>": 2651,
      "joke</w>": 2652,
      "erry</w>": 2653,
      "hoo": 2654,
      "after": 2655,
      "measure</w>": 2656,
      "belon": 2657,
      "branches</w>": 2658,
      "balance</w>": 2659,
      "lifted</w>": 2660,
      "loyal</w>": 2661,
      "realised</w>": 2662,
      "clear</w>": 2663,
      "fred</w>": 2664,
      "pair</w>": 2665,
      "scu": 2666,
      "sil": 2667,
      "offered</w>": 2668,
      "chicken</w>": 2669,
      "mighty</w>": 2670,
      "lous</w>": 2671,
      "dig</w>": 2672,
      "que</w>": 2673,
      "rare</w>": 2674,
      "jea": 2675,
      "wned</w>": 2676,
      "chase</w>": 2677,
      "ash</w>": 2678,
      "ky</w>": 2679,
      "adventu": 2680,
      "mrs</w>": 2681,
      "discovered</w>": 2682,
      "tray</w>": 2683,
      "may</w>": 2684,
      "butter</w>": 2685,
      "zard</w>": 2686,
      "clown</w>": 2687,
      "pie</w>": 2688,
      "neck</w>": 2689,
      "organized</w>": 2690,
      "soap</w>": 2691,
      "adventurous</w>": 2692,
      "eye</w>": 2693,
      "ple": 2694,
      "hurts</w>": 2695,
      "barn</w>": 2696,
      "ated</w>": 2697,
      "unique</w>": 2698,
      "don": 2699,
      "diffi": 2700,
      "difficu": 2701,
      "cross</w>": 2702,
      "oo</w>": 2703,
      "circle</w>": 2704,
      "map</w>": 2705,
      "ley</w>": 2706,
      "happening</w>": 2707,
      "colourful</w>": 2708,
      "bot": 2709,
      "jealous</w>": 2710,
      "bobo</w>": 2711,
      "whe": 2712,
      "tag</w>": 2713,
      "wrapped</w>": 2714,
      "bella</w>": 2715,
      "ghtened</w>": 2716,
      "uncle</w>": 2717,
      "bottom</w>": 2718,
      "smoke</w>": 2719,
      "sadly</w>": 2720,
      "argu": 2721,
      "unt</w>": 2722,
      "learning</w>": 2723,
      "kindness</w>": 2724,
      "fill</w>": 2725,
      "runk</w>": 2726,
      "louder</w>": 2727,
      "isi": 2728,
      "lish</w>": 2729,
      "zz</w>": 2730,
      "apo": 2731,
      "dizzy</w>": 2732,
      "banana</w>": 2733,
      "trucks</w>": 2734,
      "compe": 2735,
      "imed</w>": 2736,
      "wonder</w>": 2737,
      "tweety</w>": 2738,
      "knife</w>": 2739,
      "birdie</w>": 2740,
      "apolo": 2741,
      "shake</w>": 2742,
      "difficult</w>": 2743,
      "wand</w>": 2744,
      "aunt</w>": 2745,
      "stri": 2746,
      "mon</w>": 2747,
      "squee": 2748,
      "weird</w>": 2749,
      "garage</w>": 2750,
      "thin</w>": 2751,
      "lift</w>": 2752,
      "um</w>": 2753,
      "using</w>": 2754,
      "balloons</w>": 2755,
      "crawled</w>": 2756,
      "spu": 2757,
      "pointing</w>": 2758,
      "harder</w>": 2759,
      "oli": 2760,
      "unusual</w>": 2761,
      "managed</w>": 2762,
      "chirp": 2763,
      "door": 2764,
      "am": 2765,
      "city</w>": 2766,
      "bald</w>": 2767,
      "whale</w>": 2768,
      "soldi": 2769,
      "team</w>": 2770,
      "zip</w>": 2771,
      "search</w>": 2772,
      "tough</w>": 2773,
      "favour": 2774,
      "straw": 2775,
      "norma": 2776,
      "saying</w>": 2777,
      "dinosaur</w>": 2778,
      "boxes</w>": 2779,
      "surr": 2780,
      "market</w>": 2781,
      "comple": 2782,
      "step</w>": 2783,
      "ext": 2784,
      "four</w>": 2785,
      "knight</w>": 2786,
      "island</w>": 2787,
      "laughs</w>": 2788,
      "mode": 2789,
      "turtle</w>": 2790,
      "favourite</w>": 2791,
      "art</w>": 2792,
      "spun</w>": 2793,
      "added</w>": 2794,
      "dom</w>": 2795,
      "dows</w>": 2796,
      "ging</w>": 2797,
      "figure</w>": 2798,
      "cate</w>": 2799,
      "pen</w>": 2800,
      "chu": 2801,
      "shells</w>": 2802,
      "sword</w>": 2803,
      "zoo": 2804,
      "nemo</w>": 2805,
      "men": 2806,
      "hats</w>": 2807,
      "extra</w>": 2808,
      "guit": 2809,
      "impressed</w>": 2810,
      "dent</w>": 2811,
      "kid</w>": 2812,
      "already</w>": 2813,
      "normal</w>": 2814,
      "ator</w>": 2815,
      "toa": 2816,
      "painting</w>": 2817,
      "enjoying</w>": 2818,
      "content</w>": 2819,
      "belonged</w>": 2820,
      "brilli": 2821,
      "born</w>": 2822,
      "smal": 2823,
      "foot</w>": 2824,
      "edge</w>": 2825,
      "trust</w>": 2826,
      "helps</w>": 2827,
      "butt": 2828,
      "fl": 2829,
      "clay</w>": 2830,
      "drum</w>": 2831,
      "excitedly</w>": 2832,
      "shape</w>": 2833,
      "loudly</w>": 2834,
      "thick</w>": 2835,
      "libr": 2836,
      "pump": 2837,
      "air": 2838,
      "choose</w>": 2839,
      "nice": 2840,
      "paw</w>": 2841,
      "escape</w>": 2842,
      "bossy</w>": 2843,
      "free": 2844,
      "circles</w>": 2845,
      "success": 2846,
      "crayon</w>": 2847,
      "check</w>": 2848,
      "falls</w>": 2849,
      "buttons</w>": 2850,
      "strea": 2851,
      "again": 2852,
      "clap</w>": 2853,
      "dreamed</w>": 2854,
      "means</w>": 2855,
      "apologi": 2856,
      "brilliant</w>": 2857,
      "frightened</w>": 2858,
      "terri": 2859,
      "ssage</w>": 2860,
      "igno": 2861,
      "hou": 2862,
      "break": 2863,
      "swan</w>": 2864,
      "against</w>": 2865,
      "safely</w>": 2866,
      "scoo": 2867,
      "invited</w>": 2868,
      "brothers</w>": 2869,
      "mix": 2870,
      "cient</w>": 2871,
      "guitar</w>": 2872,
      "acce": 2873,
      "snee": 2874,
      "grown</w>": 2875,
      "slipped</w>": 2876,
      "ancient</w>": 2877,
      "proudly</w>": 2878,
      "happiness</w>": 2879,
      "cheerful</w>": 2880,
      "knows</w>": 2881,
      "sophi": 2882,
      "movie</w>": 2883,
      "dient</w>": 2884,
      "trunk</w>": 2885,
      "breakfast</w>": 2886,
      "valuable</w>": 2887,
      "belong</w>": 2888,
      "lights</w>": 2889,
      "stub": 2890,
      "vel": 2891,
      "houses</w>": 2892,
      "lds</w>": 2893,
      "sni": 2894,
      "shout</w>": 2895,
      "fridge</w>": 2896,
      "ducky</w>": 2897,
      "gold</w>": 2898,
      "sped</w>": 2899,
      "lola</w>": 2900,
      "bor": 2901,
      "eri": 2902,
      "spin": 2903,
      "sight</w>": 2904,
      "placed</w>": 2905,
      "fier": 2906,
      "foolish</w>": 2907,
      "log</w>": 2908,
      "kick</w>": 2909,
      "skin</w>": 2910,
      "rh": 2911,
      "fat</w>": 2912,
      "walls</w>": 2913,
      "ared</w>": 2914,
      "competi": 2915,
      "nicely</w>": 2916,
      "nosy</w>": 2917,
      "space</w>": 2918,
      "bounce</w>": 2919,
      "dreams</w>": 2920,
      "at": 2921,
      "tten</w>": 2922,
      "rubbed</w>": 2923,
      "notice</w>": 2924,
      "wagon</w>": 2925,
      "stubborn</w>": 2926,
      "tools</w>": 2927,
      "delicate</w>": 2928,
      "keys</w>": 2929,
      "jam</w>": 2930,
      "dough</w>": 2931,
      "collect</w>": 2932,
      "excla": 2933,
      "geor": 2934,
      "use": 2935,
      "successful</w>": 2936,
      "ew</w>": 2937,
      "stir": 2938,
      "dead</w>": 2939,
      "useful</w>": 2940,
      "port</w>": 2941,
      "print</w>": 2942,
      "poured</w>": 2943,
      "bags</w>": 2944,
      "exclaimed</w>": 2945,
      "suggested</w>": 2946,
      "toma": 2947,
      "tal</w>": 2948,
      "mixed</w>": 2949,
      "wiped</w>": 2950,
      "borrow</w>": 2951,
      "cart</w>": 2952,
      "office</w>": 2953,
      "horn</w>": 2954,
      "goat</w>": 2955,
      "sounded</w>": 2956,
      "egg</w>": 2957,
      "bees</w>": 2958,
      "eal</w>": 2959,
      "serve</w>": 2960,
      "tters</w>": 2961,
      "stove</w>": 2962,
      "sin": 2963,
      "ldna</w>": 2964,
      "dable</w>": 2965,
      "ghter</w>": 2966,
      "reading</w>": 2967,
      "kinds</w>": 2968,
      "gile</w>": 2969,
      "clock</w>": 2970,
      "smaller</w>": 2971,
      "pop</w>": 2972,
      "ghtful</w>": 2973,
      "bushes</w>": 2974,
      "fierce</w>": 2975,
      "them": 2976,
      "themselves</w>": 2977,
      "fragile</w>": 2978,
      "fountain</w>": 2979,
      "dependable</w>": 2980,
      "showing</w>": 2981,
      "stumbled</w>": 2982,
      "explored</w>": 2983,
      "pass</w>": 2984,
      "obedient</w>": 2985,
      "abo": 2986,
      "act</w>": 2987,
      "above</w>": 2988,
      "jolly</w>": 2989,
      "patch</w>": 2990,
      "anic</w>": 2991,
      "counted</w>": 2992,
      "fingers</w>": 2993,
      "indepen": 2994,
      "george</w>": 2995,
      "ann</w>": 2996,
      "rode</w>": 2997,
      "rescu": 2998,
      "spinning</w>": 2999,
      "parrot</w>": 3000,
      "ination</w>": 3001,
      "raced</w>": 3002,
      "chea": 3003,
      "changed</w>": 3004,
      "enor": 3005,
      "ies</w>": 3006,
      "roof</w>": 3007,
      "enormous</w>": 3008,
      "vice</w>": 3009,
      "cleaning</w>": 3010,
      "deligh": 3011,
      "spoiled</w>": 3012,
      "ori": 3013,
      "practice</w>": 3014,
      "playful</w>": 3015,
      "dia": 3016,
      "admired</w>": 3017,
      "umb": 3018,
      "mike</w>": 3019,
      "book": 3020,
      "umbrel": 3021,
      "brightly</w>": 3022,
      "meal</w>": 3023,
      "built</w>": 3024,
      "kicked</w>": 3025,
      "delighted</w>": 3026,
      "qua": 3027,
      "stronger</w>": 3028,
      "shark</w>": 3029,
      "boats</w>": 3030,
      "bitter</w>": 3031,
      "oper": 3032,
      "pan</w>": 3033,
      "toby</w>": 3034,
      "costu": 3035,
      "jewel": 3036,
      "reminded</w>": 3037,
      "dona</w>": 3038,
      "solve</w>": 3039,
      "ange": 3040,
      "origin": 3041,
      "pumpkin</w>": 3042,
      "friend": 3043,
      "ber</w>": 3044,
      "dove</w>": 3045,
      "atta": 3046,
      "shone</w>": 3047,
      "whispered</w>": 3048,
      "handed</w>": 3049,
      "mple</w>": 3050,
      "wers</w>": 3051,
      "independent</w>": 3052,
      "ties</w>": 3053,
      "wrap</w>": 3054,
      "popcorn</w>": 3055,
      "barber</w>": 3056,
      "original</w>": 3057,
      "reli": 3058,
      "dave</w>": 3059,
      "ett": 3060,
      "tummy</w>": 3061,
      "allowed</w>": 3062,
      "sts</w>": 3063,
      "power</w>": 3064,
      "hairy</w>": 3065,
      "moder": 3066,
      "unknown</w>": 3067,
      "courage</w>": 3068,
      "painted</w>": 3069,
      "scream</w>": 3070,
      "thir": 3071,
      "jog</w>": 3072,
      "cto": 3073,
      "yar": 3074,
      "vet</w>": 3075,
      "joined</w>": 3076,
      "hammer</w>": 3077,
      "reliable</w>": 3078,
      "spray</w>": 3079,
      "cone</w>": 3080,
      "als</w>": 3081,
      "clum": 3082,
      "wealthy</w>": 3083,
      "phin</w>": 3084,
      "scare</w>": 3085,
      "dolphin</w>": 3086,
      "yet</w>": 3087,
      "lee</w>": 3088,
      "memo": 3089,
      "cover</w>": 3090,
      "bill</w>": 3091,
      "gasped</w>": 3092,
      "metal</w>": 3093,
      "dered</w>": 3094,
      "rushed</w>": 3095,
      "roo": 3096,
      "doe": 3097,
      "ering</w>": 3098,
      "compas": 3099,
      "spend</w>": 3100,
      "cau": 3101,
      "thoughtful</w>": 3102,
      "finding</w>": 3103,
      "holds</w>": 3104,
      "pean": 3105,
      "leaving</w>": 3106,
      "cil</w>": 3107,
      "tching</w>": 3108,
      "stup": 3109,
      "angel</w>": 3110,
      "chose</w>": 3111,
      "diamon": 3112,
      "pencil</w>": 3113,
      "œyes</w>": 3114,
      "sala": 3115,
      "rubb": 3116,
      "lla</w>": 3117,
      "toast</w>": 3118,
      "stupid</w>": 3119,
      "joey</w>": 3120,
      "terrible</w>": 3121,
      "picking</w>": 3122,
      "statu": 3123,
      "forth</w>": 3124,
      "need": 3125,
      "add</w>": 3126,
      "pirate</w>": 3127,
      "yarn</w>": 3128,
      "lolli": 3129,
      "xi": 3130,
      "tied</w>": 3131,
      "fort</w>": 3132,
      "march</w>": 3133,
      "regu": 3134,
      "thinking</w>": 3135,
      "lded</w>": 3136,
      "pota": 3137,
      "delight</w>": 3138,
      "hor": 3139,
      "guil": 3140,
      "camer": 3141,
      "modern</w>": 3142,
      "codi": 3143,
      "crocodi": 3144,
      "sauce</w>": 3145,
      "clumsy</w>": 3146,
      "beak</w>": 3147,
      "rug</w>": 3148,
      "guilty</w>": 3149,
      "polly</w>": 3150,
      "sleeping</w>": 3151,
      "advice</w>": 3152,
      "stage</w>": 3153,
      "opens</w>": 3154,
      "telling</w>": 3155,
      "banda": 3156,
      "goose</w>": 3157,
      "kim</w>": 3158,
      "ly": 3159,
      "half</w>": 3160,
      "gotten</w>": 3161,
      "pau": 3162,
      "ttered</w>": 3163,
      "ctory</w>": 3164,
      "umbrella</w>": 3165,
      "create</w>": 3166,
      "serious</w>": 3167,
      "noon</w>": 3168,
      "pebb": 3169,
      "ssive</w>": 3170,
      "grow": 3171,
      "view</w>": 3172,
      "eless</w>": 3173,
      "salad</w>": 3174,
      "numb": 3175,
      "nature</w>": 3176,
      "pige": 3177,
      "washed</w>": 3178,
      "ingre": 3179,
      "stranger</w>": 3180,
      "camera</w>": 3181,
      "sink</w>": 3182,
      "ments</w>": 3183,
      "spagh": 3184,
      "etti</w>": 3185,
      "spaghetti</w>": 3186,
      "searching</w>": 3187,
      "nobody</w>": 3188,
      "nurse</w>": 3189,
      "compassi": 3190,
      "yer</w>": 3191,
      "rise</w>": 3192,
      "ribb": 3193,
      "missing</w>": 3194,
      "week</w>": 3195,
      "stream</w>": 3196,
      "dal</w>": 3197,
      "destro": 3198,
      "exa": 3199,
      "crazy</w>": 3200,
      "doesn</w>": 3201,
      "ines</w>": 3202,
      "class</w>": 3203,
      "popu": 3204,
      "dull</w>": 3205,
      "chec": 3206,
      "thirsty</w>": 3207,
      "hoop</w>": 3208,
      "hay</w>": 3209,
      "impressive</w>": 3210,
      "shocked</w>": 3211,
      "carrying</w>": 3212,
      "guard</w>": 3213,
      "driving</w>": 3214,
      "lemon</w>": 3215,
      "regular</w>": 3216,
      "jacket</w>": 3217,
      "popular</w>": 3218,
      "seeds</w>": 3219,
      "friendship</w>": 3220,
      "dreaming</w>": 3221,
      "nel</w>": 3222,
      "graceful</w>": 3223,
      "verse</w>": 3224,
      "flash": 3225,
      "tank</w>": 3226,
      "ject</w>": 3227,
      "flexi": 3228,
      "wheels</w>": 3229,
      "engine</w>": 3230,
      "lope</w>": 3231,
      "stops</w>": 3232,
      "sparkled</w>": 3233,
      "spea": 3234,
      "pengu": 3235,
      "persist": 3236,
      "snea": 3237,
      "thunder</w>": 3238,
      "tire</w>": 3239,
      "sophie</w>": 3240,
      "doors</w>": 3241,
      "screen</w>": 3242,
      "early</w>": 3243,
      "cryst": 3244,
      "pack": 3245,
      "beep</w>": 3246,
      "flexible</w>": 3247,
      "butterflies</w>": 3248,
      "blue": 3249,
      "el</w>": 3250,
      "cane</w>": 3251,
      "ordin": 3252,
      "poppy</w>": 3253,
      "ordinary</w>": 3254,
      "numbers</w>": 3255,
      "nut</w>": 3256,
      "drop</w>": 3257,
      "truth</w>": 3258,
      "ct</w>": 3259,
      "ither</w>": 3260,
      "patter": 3261,
      "enve": 3262,
      "imagined</w>": 3263,
      "compu": 3264,
      "feather</w>": 3265,
      "peeked</w>": 3266,
      "bracel": 3267,
      "library</w>": 3268,
      "bracelet</w>": 3269,
      "ingredi": 3270,
      "ingredients</w>": 3271,
      "bra</w>": 3272,
      "flashlight</w>": 3273,
      "œleta</w>": 3274,
      "ha</w>": 3275,
      "swea": 3276,
      "melo": 3277,
      "enthu": 3278,
      "fin</w>": 3279,
      "enthusi": 3280,
      "mole</w>": 3281,
      "warned</w>": 3282,
      "crocodile</w>": 3283,
      "sudden</w>": 3284,
      "enthusias": 3285,
      "gie</w>": 3286,
      "beetle</w>": 3287,
      "jelly</w>": 3288,
      "hurry</w>": 3289,
      "yay</w>": 3290,
      "diamond</w>": 3291,
      "harm": 3292,
      "ahead</w>": 3293,
      "hair": 3294,
      "spilled</w>": 3295,
      "statue</w>": 3296,
      "fresh</w>": 3297,
      "suit</w>": 3298,
      "tunnel</w>": 3299,
      "avo": 3300,
      "ale": 3301,
      "scale</w>": 3302,
      "rat</w>": 3303,
      "gum</w>": 3304,
      "steps</w>": 3305,
      "towers</w>": 3306,
      "flute</w>": 3307,
      "chew</w>": 3308,
      "careless</w>": 3309,
      "gho": 3310,
      "cheap</w>": 3311,
      "slides</w>": 3312,
      "prize</w>": 3313,
      "bigge": 3314,
      "biggest</w>": 3315,
      "value</w>": 3316,
      "humble</w>": 3317,
      "note</w>": 3318,
      "ision</w>": 3319,
      "stur": 3320,
      "handle</w>": 3321,
      "jumps</w>": 3322,
      "oni": 3323,
      "mailbox</w>": 3324,
      "lig": 3325,
      "badly</w>": 3326,
      "bent</w>": 3327,
      "cooking</w>": 3328,
      "recei": 3329,
      "ringing</w>": 3330,
      "crane</w>": 3331,
      "easi": 3332,
      "spoke</w>": 3333,
      "intel": 3334,
      "growing</w>": 3335,
      "intellig": 3336,
      "ggling</w>": 3337,
      "tful</w>": 3338,
      "celebrate</w>": 3339,
      "bull</w>": 3340,
      "cupboard</w>": 3341,
      "sorts</w>": 3342,
      "spir": 3343,
      "counting</w>": 3344,
      "sofa</w>": 3345,
      "brow": 3346,
      "uncomfortable</w>": 3347,
      "ddled</w>": 3348,
      "persistent</w>": 3349,
      "reci": 3350,
      "couldna</w>": 3351,
      "spra": 3352,
      "older</w>": 3353,
      "beauty</w>": 3354,
      "rema": 3355,
      "harmless</w>": 3356,
      "spring</w>": 3357,
      "vani": 3358,
      "pale</w>": 3359,
      "cereal</w>": 3360,
      "shee": 3361,
      "desk</w>": 3362,
      "cakes</w>": 3363,
      "names</w>": 3364,
      "coco": 3365,
      "hang</w>": 3366,
      "rink": 3367,
      "octo": 3368,
      "pretending</w>": 3369,
      "octopu": 3370,
      "shoot</w>": 3371,
      "quick</w>": 3372,
      "squi": 3373,
      "anda</w>": 3374,
      "triang": 3375,
      "hunter</w>": 3376,
      "vering</w>": 3377,
      "past</w>": 3378,
      "sandwiches</w>": 3379,
      "refused</w>": 3380,
      "gloo": 3381,
      "flour</w>": 3382,
      "whist": 3383,
      "order</w>": 3384,
      "gree": 3385,
      "sandy</w>": 3386,
      "pepper</w>": 3387,
      "computer</w>": 3388,
      "shut</w>": 3389,
      "sunflower</w>": 3390,
      "deaf</w>": 3391,
      "drawer</w>": 3392,
      "turkey</w>": 3393,
      "lead</w>": 3394,
      "track</w>": 3395,
      "ari": 3396,
      "au": 3397,
      "trash</w>": 3398,
      "jet</w>": 3399,
      "charming</w>": 3400,
      "sailo": 3401,
      "env": 3402,
      "xious</w>": 3403,
      "grace</w>": 3404,
      "anxious</w>": 3405,
      "gifted</w>": 3406,
      "octopus</w>": 3407,
      "alex</w>": 3408,
      "brownie</w>": 3409,
      "crystal</w>": 3410,
      "snuggled</w>": 3411,
      "sell</w>": 3412,
      "chasing</w>": 3413,
      "buddy</w>": 3414,
      "pho": 3415,
      "ining</w>": 3416,
      "rules</w>": 3417,
      "seem</w>": 3418,
      "gem</w>": 3419,
      "paul</w>": 3420,
      "attra": 3421,
      "raven</w>": 3422,
      "lively</w>": 3423,
      "slid</w>": 3424,
      "lizard</w>": 3425,
      "ised</w>": 3426,
      "five</w>": 3427,
      "gira": 3428,
      "thief</w>": 3429,
      "zes</w>": 3430,
      "envelope</w>": 3431,
      "rub</w>": 3432,
      "twirled</w>": 3433,
      "study</w>": 3434,
      "ignor": 3435,
      "uc": 3436,
      "ado": 3437,
      "vroom</w>": 3438,
      "miser": 3439,
      "disgu": 3440,
      "pony</w>": 3441,
      "neighb": 3442,
      "design</w>": 3443,
      "hen": 3444,
      "sity</w>": 3445,
      "pigeon</w>": 3446,
      "leash</w>": 3447,
      "pian": 3448,
      "spon": 3449,
      "zebra</w>": 3450,
      "drops</w>": 3451,
      "bandage</w>": 3452,
      "men</w>": 3453,
      "soldier</w>": 3454,
      "carto": 3455,
      "skip</w>": 3456,
      "mi</w>": 3457,
      "parade</w>": 3458,
      "annie</w>": 3459,
      "mush": 3460,
      "onate</w>": 3461,
      "gloomy</w>": 3462,
      "miserable</w>": 3463,
      "intelligent</w>": 3464,
      "piano</w>": 3465,
      "bin": 3466,
      "arrow</w>": 3467,
      "gori": 3468,
      "alert</w>": 3469,
      "hung</w>": 3470,
      "ignorant</w>": 3471,
      "compassionate</w>": 3472,
      "helmet</w>": 3473,
      "belt</w>": 3474,
      "vide": 3475,
      "shaking</w>": 3476,
      "station</w>": 3477,
      "ckle</w>": 3478,
      "return</w>": 3479,
      "stretched</w>": 3480,
      "was": 3481,
      "wishes</w>": 3482,
      "charlie</w>": 3483,
      "needle</w>": 3484,
      "ths</w>": 3485,
      "dug</w>": 3486,
      "chubby</w>": 3487,
      "collar</w>": 3488,
      "over": 3489,
      "aid</w>": 3490,
      "letters</w>": 3491,
      "separ": 3492,
      "square</w>": 3493,
      "mas</w>": 3494,
      "jerry</w>": 3495,
      "lean": 3496,
      "guess</w>": 3497,
      "bled</w>": 3498,
      "anywhere</w>": 3499,
      "henry</w>": 3500,
      "package</w>": 3501,
      "carpet</w>": 3502,
      "starts</w>": 3503,
      "bounced</w>": 3504,
      "creatures</w>": 3505,
      "trap</w>": 3506,
      "tweetie</w>": 3507,
      "pants</w>": 3508,
      "pat</w>": 3509,
      "squash</w>": 3510,
      "ctive</w>": 3511,
      "listening</w>": 3512,
      "fear": 3513,
      "resi": 3514,
      "competitive</w>": 3515,
      "fireman</w>": 3516,
      "stickers</w>": 3517,
      "everyday</w>": 3518,
      "attic</w>": 3519,
      "measu": 3520,
      "ung</w>": 3521,
      "somewhere</w>": 3522,
      "respectful</w>": 3523,
      "ghost</w>": 3524,
      "blow</w>": 3525,
      "cube</w>": 3526,
      "rest": 3527,
      "jug</w>": 3528,
      "sla": 3529,
      "distur": 3530,
      "mped</w>": 3531,
      "hood</w>": 3532,
      "bark</w>": 3533,
      "windows</w>": 3534,
      "shouts</w>": 3535,
      "alli": 3536,
      "chance</w>": 3537,
      "cards</w>": 3538,
      "pressed</w>": 3539,
      "attractive</w>": 3540,
      "pasta</w>": 3541,
      "hipp": 3542,
      "pless</w>": 3543,
      "papa</w>": 3544,
      "helpless</w>": 3545,
      "ener": 3546,
      "itself</w>": 3547,
      "rable</w>": 3548,
      "decorate</w>": 3549,
      "spe": 3550,
      "ected</w>": 3551,
      "lemon": 3552,
      "ost": 3553,
      "ostrich</w>": 3554,
      "practiced</w>": 3555,
      "trump": 3556,
      "gy</w>": 3557,
      "sy": 3558,
      "given</w>": 3559,
      "anyway</w>": 3560,
      "melon</w>": 3561,
      "nuts</w>": 3562,
      "light": 3563,
      "alliga": 3564,
      "you": 3565,
      "ith</w>": 3566,
      "gorilla</w>": 3567,
      "lid</w>": 3568,
      "tool</w>": 3569,
      "further</w>": 3570,
      "club</w>": 3571,
      "pipe</w>": 3572,
      "candle</w>": 3573,
      "filthy</w>": 3574,
      "cocoa</w>": 3575,
      "stirred</w>": 3576,
      "ended</w>": 3577,
      "troubled</w>": 3578,
      "disgusting</w>": 3579,
      "how": 3580,
      "ils</w>": 3581,
      "dish</w>": 3582,
      "arian</w>": 3583,
      "tweet</w>": 3584,
      "paws</w>": 3585,
      "fearful</w>": 3586,
      "waff": 3587,
      "resta": 3588,
      "cop": 3589,
      "broc": 3590,
      "fear</w>": 3591,
      "post</w>": 3592,
      "pers</w>": 3593,
      "ckey</w>": 3594,
      "adorable</w>": 3595,
      "brighter</w>": 3596,
      "jelly": 3597,
      "travel</w>": 3598,
      "shadow</w>": 3599,
      "sweethe": 3600,
      "coli</w>": 3601,
      "broccoli</w>": 3602,
      "stir</w>": 3603,
      "restless</w>": 3604,
      "leo": 3605,
      "monkeys</w>": 3606,
      "lollipop</w>": 3607,
      "secon": 3608,
      "fan</w>": 3609,
      "quar": 3610,
      "sweetheart</w>": 3611,
      "mm": 3612,
      "mission</w>": 3613,
      "whisk": 3614,
      "por": 3615,
      "leopar": 3616,
      "jeep</w>": 3617,
      "scooter</w>": 3618,
      "millie</w>": 3619,
      "stretch</w>": 3620,
      "lilly</w>": 3621,
      "mask</w>": 3622,
      "impatient</w>": 3623,
      "nt</w>": 3624,
      "œwhat</w>": 3625,
      "poe": 3626,
      "whiskers</w>": 3627,
      "heli": 3628,
      "barking</w>": 3629,
      "afternoon</w>": 3630,
      "radio</w>": 3631,
      "fas": 3632,
      "chy</w>": 3633,
      "crack</w>": 3634,
      "sandbox</w>": 3635,
      "stles</w>": 3636,
      "hive</w>": 3637,
      "comb</w>": 3638,
      "base": 3639,
      "aero": 3640,
      "relax</w>": 3641,
      "compla": 3642,
      "giggle</w>": 3643,
      "dess": 3644,
      "vol": 3645,
      "sely</w>": 3646,
      "jellyfish</w>": 3647,
      "cricket</w>": 3648,
      "math</w>": 3649,
      "urant</w>": 3650,
      "restaurant</w>": 3651,
      "record</w>": 3652,
      "crawl</w>": 3653,
      "glasses</w>": 3654,
      "nowhere</w>": 3655,
      "distant</w>": 3656,
      "helicop": 3657,
      "sort</w>": 3658,
      "batter": 3659,
      "summer</w>": 3660,
      "pour</w>": 3661,
      "danny</w>": 3662,
      "ently</w>": 3663,
      "envious</w>": 3664,
      "een</w>": 3665,
      "cats</w>": 3666,
      "lions</w>": 3667,
      "bathtub</w>": 3668,
      "cap</w>": 3669,
      "lightning</w>": 3670,
      "gree</w>": 3671,
      "ddles</w>": 3672,
      "soar</w>": 3673,
      "salt</w>": 3674,
      "trumpet</w>": 3675,
      "bubble</w>": 3676,
      "cooked</w>": 3677,
      "grabs</w>": 3678,
      "shoe</w>": 3679,
      "sheet</w>": 3680,
      "fork</w>": 3681,
      "puni": 3682,
      "kang": 3683,
      "cheer</w>": 3684,
      "question</w>": 3685,
      "castles</w>": 3686,
      "bicycle</w>": 3687,
      "kangar": 3688,
      "happier</w>": 3689,
      "behave</w>": 3690,
      "squea": 3691,
      "itch</w>": 3692,
      "split</w>": 3693,
      "pulls</w>": 3694,
      "bun": 3695,
      "finds</w>": 3696,
      "bun</w>": 3697,
      "impro": 3698,
      "tuna</w>": 3699,
      "rice</w>": 3700,
      "sweater</w>": 3701,
      "cin": 3702,
      "seal</w>": 3703,
      "hippo</w>": 3704,
      "harsh</w>": 3705,
      "quite</w>": 3706,
      "message</w>": 3707,
      "chal": 3708,
      "alligator</w>": 3709,
      "gli": 3710,
      "bul": 3711,
      "cows</w>": 3712,
      "pilot</w>": 3713,
      "leopard</w>": 3714,
      "cac": 3715,
      "sle": 3716,
      "sport</w>": 3717,
      "stuff</w>": 3718,
      "eras": 3719,
      "len</w>": 3720,
      "new": 3721,
      "admire</w>": 3722,
      "purse</w>": 3723,
      "vine</w>": 3724,
      "stared</w>": 3725,
      "panda</w>": 3726,
      "laun": 3727,
      "works</w>": 3728,
      "tripped</w>": 3729,
      "hook</w>": 3730,
      "muse": 3731,
      "size</w>": 3732,
      "holes</w>": 3733,
      "wheat</w>": 3734,
      "heal</w>": 3735,
      "bikes</w>": 3736,
      "organize</w>": 3737,
      "magnet</w>": 3738,
      "however</w>": 3739,
      "forgave</w>": 3740,
      "modest</w>": 3741,
      "kate</w>": 3742,
      "xi</w>": 3743,
      "didna</w>": 3744,
      "riding</w>": 3745,
      "mimi</w>": 3746,
      "wander</w>": 3747,
      "danger</w>": 3748,
      "enthusiastic</w>": 3749,
      "paid</w>": 3750,
      "otter</w>": 3751,
      "rooms</w>": 3752,
      "tooth</w>": 3753,
      "roared</w>": 3754,
      "mug</w>": 3755,
      "pushing</w>": 3756,
      "ink": 3757,
      "cushi": 3758,
      "spirit</w>": 3759,
      "boots</w>": 3760,
      "helicopter</w>": 3761,
      "dessert</w>": 3762,
      "peace</w>": 3763,
      "reco": 3764,
      "perform</w>": 3765,
      "nap": 3766,
      "trains</w>": 3767,
      "van</w>": 3768,
      "palace</w>": 3769,
      "fil": 3770,
      "rescue</w>": 3771,
      "stack</w>": 3772,
      "volcan": 3773,
      "twink": 3774,
      "rod</w>": 3775,
      "sent</w>": 3776,
      "yell</w>": 3777,
      "triangle</w>": 3778,
      "died</w>": 3779,
      "pole</w>": 3780,
      "bird": 3781,
      "gni": 3782,
      "papers</w>": 3783,
      "scope</w>": 3784,
      "cactu": 3785,
      "swinging</w>": 3786,
      "seeing</w>": 3787,
      "prun": 3788,
      "trick</w>": 3789,
      "violi": 3790,
      "violin</w>": 3791,
      "either</w>": 3792,
      "thread</w>": 3793,
      "comet</w>": 3794,
      "recogni": 3795,
      "frowned</w>": 3796,
      "knock</w>": 3797,
      "rolling</w>": 3798,
      "sticker</w>": 3799,
      "microphone</w>": 3800,
      "strawberry</w>": 3801,
      "cen": 3802,
      "maria</w>": 3803,
      "cop</w>": 3804,
      "jokes</w>": 3805,
      "shakes</w>": 3806,
      "fold</w>": 3807,
      "seed</w>": 3808,
      "prov": 3809,
      "silver</w>": 3810,
      "museum</w>": 3811,
      "ga</w>": 3812,
      "knot</w>": 3813,
      "starting</w>": 3814,
      "shade</w>": 3815,
      "neat</w>": 3816,
      "experi": 3817,
      "pushes</w>": 3818,
      "reward</w>": 3819,
      "sly</w>": 3820,
      "fee</w>": 3821,
      "yogu": 3822,
      "steal</w>": 3823,
      "bananas</w>": 3824,
      "object</w>": 3825,
      "sailor</w>": 3826,
      "blin": 3827,
      "imagine</w>": 3828,
      "note": 3829,
      "mild</w>": 3830,
      "speed</w>": 3831,
      "sir</w>": 3832,
      "wire</w>": 3833,
      "harry</w>": 3834,
      "sprink": 3835,
      "drawings</w>": 3836,
      "avoca": 3837,
      "bears</w>": 3838,
      "tha": 3839,
      "chalk</w>": 3840,
      "shop": 3841,
      "softly</w>": 3842,
      "penguin</w>": 3843,
      "cactus</w>": 3844,
      "wallet</w>": 3845,
      "shri": 3846,
      "vest</w>": 3847,
      "ffee</w>": 3848,
      "yogurt</w>": 3849,
      "pebble</w>": 3850,
      "nit": 3851,
      "eeper</w>": 3852,
      "checked</w>": 3853,
      "ambu": 3854,
      "shopkeeper</w>": 3855,
      "ya</w>": 3856,
      "encoura": 3857,
      "shrin": 3858,
      "elev": 3859,
      "appreci": 3860,
      "costume</w>": 3861,
      "pur": 3862,
      "elds</w>": 3863,
      "energy</w>": 3864,
      "motor": 3865,
      "since</w>": 3866,
      "sock</w>": 3867,
      "kangaroo</w>": 3868,
      "coffee</w>": 3869,
      "quie": 3870,
      "rings</w>": 3871,
      "barks</w>": 3872,
      "taxi</w>": 3873,
      "grapes</w>": 3874,
      "backpack</w>": 3875,
      "falling</w>": 3876,
      "smells</w>": 3877,
      "oped</w>": 3878,
      "climbing</w>": 3879,
      "tomato</w>": 3880,
      "alive</w>": 3881,
      "had": 3882,
      "learnt</w>": 3883,
      "dust</w>": 3884,
      "clapping</w>": 3885,
      "mule</w>": 3886,
      "colours</w>": 3887,
      "zoomed</w>": 3888,
      "raft</w>": 3889,
      "barrel</w>": 3890,
      "elevator</w>": 3891,
      "ava": 3892,
      "evening</w>": 3893,
      "tap</w>": 3894,
      "rubber</w>": 3895,
      "putting</w>": 3896,
      "ambulance</w>": 3897,
      "james</w>": 3898,
      "laundry</w>": 3899,
      "cian</w>": 3900,
      "mill</w>": 3901,
      "visited</w>": 3902,
      "rein": 3903,
      "volcano</w>": 3904,
      "cki": 3905,
      "nal</w>": 3906,
      "super": 3907,
      "tricks</w>": 3908,
      "gri": 3909,
      "aeroplane</w>": 3910,
      "shield</w>": 3911,
      "maggie</w>": 3912,
      "smith</w>": 3913,
      "planes</w>": 3914,
      "glow</w>": 3915,
      "marched</w>": 3916,
      "twist</w>": 3917,
      "notebook</w>": 3918,
      "lucki": 3919,
      "marry</w>": 3920,
      "respon": 3921,
      "baske": 3922,
      "acorn</w>": 3923,
      "celery</w>": 3924,
      "thata</w>": 3925,
      "earth</w>": 3926,
      "chain</w>": 3927,
      "airport</w>": 3928,
      "pit</w>": 3929,
      "leaned</w>": 3930,
      "ila": 3931,
      "belongs</w>": 3932,
      "porch</w>": 3933,
      "jewel</w>": 3934,
      "eraser</w>": 3935,
      "wool</w>": 3936,
      "tony</w>": 3937,
      "phy</w>": 3938,
      "ilable</w>": 3939,
      "steak</w>": 3940,
      "available</w>": 3941,
      "cap": 3942,
      "polish</w>": 3943,
      "dear</w>": 3944,
      "tube</w>": 3945,
      "web</w>": 3946,
      "feelings</w>": 3947,
      "dishes</w>": 3948,
      "haircut</w>": 3949,
      "ress</w>": 3950,
      "medal</w>": 3951,
      "yach": 3952,
      "basketball</w>": 3953,
      "raining</w>": 3954,
      "sures</w>": 3955,
      "dboard</w>": 3956,
      "planet</w>": 3957,
      "trophy</w>": 3958,
      "res</w>": 3959,
      "cardboard</w>": 3960,
      "cups</w>": 3961,
      "apologized</w>": 3962,
      "goal</w>": 3963,
      "tains</w>": 3964,
      "reindeer</w>": 3965,
      "send</w>": 3966,
      "dive</w>": 3967,
      "outing</w>": 3968,
      "task</w>": 3969,
      "unhappy</w>": 3970,
      "rhin": 3971,
      "perfec": 3972,
      "mbo": 3973,
      "switch</w>": 3974,
      "comfort</w>": 3975,
      "yoga</w>": 3976,
      "fields</w>": 3977,
      "gaz": 3978,
      "judge</w>": 3979,
      "player</w>": 3980,
      "atten": 3981,
      "yacht</w>": 3982,
      "hang": 3983,
      "complete</w>": 3984,
      "hoping</w>": 3985,
      "inclu": 3986,
      "ster": 3987,
      "shelter</w>": 3988,
      "wife</w>": 3989,
      "support</w>": 3990,
      "fish": 3991,
      "breaks</w>": 3992,
      "soil</w>": 3993,
      "clar": 3994,
      "sku": 3995,
      "winter</w>": 3996,
      "cauli": 3997,
      "mushroom</w>": 3998,
      "page</w>": 3999,
      "eager": 4000,
      "magaz": 4001,
      "onion</w>": 4002,
      "perfectly</w>": 4003,
      "mixer</w>": 4004,
      "frogs</w>": 4005,
      "shrimp</w>": 4006,
      "vendo": 4007,
      "journal</w>": 4008,
      "inse": 4009,
      "heads</w>": 4010,
      "ure</w>": 4011,
      "coal</w>": 4012,
      "skir": 4013,
      "giraf": 4014,
      "giraffe</w>": 4015,
      "counter</w>": 4016,
      "bel</w>": 4017,
      "furnit": 4018,
      "furniture</w>": 4019,
      "resist</w>": 4020,
      "ccer</w>": 4021,
      "soccer</w>": 4022,
      "closely</w>": 4023,
      "hadn</w>": 4024,
      "factory</w>": 4025,
      "rels</w>": 4026,
      "folder</w>": 4027,
      "minute</w>": 4028,
      "served</w>": 4029,
      "spike</w>": 4030,
      "ree": 4031,
      "baking</w>": 4032,
      "bloom</w>": 4033,
      "stic</w>": 4034,
      "golf</w>": 4035,
      "throws</w>": 4036,
      "god</w>": 4037,
      "quit</w>": 4038,
      "mech": 4039,
      "stuffed</w>": 4040,
      "cauliflower</w>": 4041,
      "twig</w>": 4042,
      "treasures</w>": 4043,
      "llie</w>": 4044,
      "tween</w>": 4045,
      "between</w>": 4046,
      "repair</w>": 4047,
      "eagerly</w>": 4048,
      "meat</w>": 4049,
      "football</w>": 4050,
      "ously</w>": 4051,
      "insi": 4052,
      "mee": 4053,
      "tel</w>": 4054,
      "peek</w>": 4055,
      "appla": 4056,
      "flame</w>": 4057,
      "loop</w>": 4058,
      "swung</w>": 4059,
      "skull</w>": 4060,
      "shouldn</w>": 4061,
      "chur": 4062,
      "orna": 4063,
      "rosie</w>": 4064,
      "laser</w>": 4065,
      "cooler</w>": 4066,
      "video</w>": 4067,
      "pirates</w>": 4068,
      "speak</w>": 4069,
      "peanut</w>": 4070,
      "points</w>": 4071,
      "ately</w>": 4072,
      "vendor</w>": 4073,
      "oil</w>": 4074,
      "lives</w>": 4075,
      "mechanic</w>": 4076,
      "painter</w>": 4077,
      "diary</w>": 4078,
      "hotel</w>": 4079,
      "shru": 4080,
      "headed</w>": 4081,
      "human</w>": 4082,
      "church</w>": 4083,
      "shouting</w>": 4084,
      "skele": 4085,
      "blowing</w>": 4086,
      "fireplace</w>": 4087,
      "poke</w>": 4088,
      "wipe</w>": 4089,
      "parent</w>": 4090,
      "spell</w>": 4091,
      "motorcycle</w>": 4092,
      "temple</w>": 4093,
      "flea</w>": 4094,
      "angu": 4095
    },
    "merges": [
      "t h",
      "a n",
      "e d</w>",
      "th e</w>",
      "an d</w>",
      "h e</w>",
      "th e",
      "w a",
      "t o</w>",
      "i n",
      "o u",
      "e r</w>",
      "a r",
      "wa s</w>",
      "l i",
      "s a",
      "i t</w>",
      "s he</w>",
      "h a",
      "e r",
      "in g</w>",
      "the y</w>",
      "o n",
      "e n",
      "l y</w>",
      "t o",
      "l o",
      "h i",
      "t i",
      "e a",
      "o n</w>",
      "m e</w>",
      "i t",
      "h er</w>",
      "a y</w>",
      "m o",
      "a t</w>",
      "i d</w>",
      "i n</w>",
      "m a",
      "e l",
      "e n</w>",
      "r e</w>",
      "l e</w>",
      "r i",
      "c a",
      "e s</w>",
      "s t",
      "b u",
      "n o",
      "sa id</w>",
      "r o",
      "r e",
      "y o",
      "l l</w>",
      "yo u</w>",
      "k ed</w>",
      "p l",
      "f o",
      "hi s</w>",
      "w it",
      "p p",
      "wit h</w>",
      "li ly</w>",
      "c e</w>",
      "r a",
      "l d</w>",
      "v e</w>",
      "t t",
      "th at</w>",
      "on e</w>",
      "v er",
      "s o</w>",
      "d ay</w>",
      "b i",
      "h o",
      "s o",
      "o f</w>",
      "m y</w>",
      "k e</w>",
      "b o",
      "bu t</w>",
      "m i",
      "t ed</w>",
      "i d",
      "c k</w>",
      "ha d</w>",
      "n e",
      "f u",
      "mo m</w>",
      "s e</w>",
      "ver y</w>",
      "i s</w>",
      "b e",
      "w h",
      "b a",
      "c o",
      "g h",
      "l e",
      "ou n",
      "w an",
      "ha pp",
      "m my</w>",
      "d o",
      "fo r</w>",
      "s t</w>",
      "er e</w>",
      "i r",
      "s h",
      "the re</w>",
      "tt le</w>",
      "s u",
      "d s</w>",
      "li ttle</w>",
      "ti me</w>",
      "lo o",
      "c h</w>",
      "oun d</w>",
      "ou ld</w>",
      "y s</w>",
      "ar e</w>",
      "happ y</w>",
      "no t</w>",
      "r ea",
      "l ed</w>",
      "f ri",
      "l a",
      "the r</w>",
      "en t</w>",
      "bi g</w>",
      "sa w</w>",
      "g o",
      "fri en",
      "r y</w>",
      "s e",
      "i r</w>",
      "m e",
      "a l",
      "s p",
      "g e",
      "v ed</w>",
      "pl ay</w>",
      "w ere</w>",
      "g a",
      "on ce</w>",
      "pl a",
      "gh t</w>",
      "c ar",
      "b e</w>",
      "u p",
      "n a",
      "ou t</w>",
      "o r",
      "u n",
      "h el",
      "wan ted</w>",
      "the ir</w>",
      "e c",
      "ca n</w>",
      "c h",
      "a s",
      "up on</w>",
      "g ir",
      "gir l</w>",
      "hi m</w>",
      "the m</w>",
      "u p</w>",
      "t a",
      "f a",
      "p u",
      "to m</w>",
      "s mi",
      "ha ve</w>",
      "v er</w>",
      "b en</w>",
      "d e</w>",
      "t s</w>",
      "f ro",
      "w i",
      "e x",
      "g o</w>",
      "ha t</w>",
      "d d",
      "m ed</w>",
      "c k",
      "t er</w>",
      "w ent</w>",
      "e e",
      "w e</w>",
      "a ll</w>",
      "th ing</w>",
      "fu l</w>",
      "d a",
      "ne w</w>",
      "frien ds</w>",
      "g s</w>",
      "id e</w>",
      "w hat</w>",
      "wh en</w>",
      "p ar",
      "p i",
      "f el",
      "wa y</w>",
      "pla y",
      "t u",
      "fro m</w>",
      "in d</w>",
      "h u",
      "s ide</w>",
      "r u",
      "the n</w>",
      "f i",
      "ti mmy</w>",
      "so me",
      "ba ck</w>",
      "j o",
      "na med</w>",
      "to o</w>",
      "smi led</w>",
      "m u",
      "lo ved</w>",
      "li ke</w>",
      "as ked</w>",
      "st ar",
      "fel t</w>",
      "fu n</w>",
      "c ould</w>",
      "s to",
      "loo ked</w>",
      "w n</w>",
      "ar ound</w>",
      "d o</w>",
      "bi r",
      "o k</w>",
      "s s</w>",
      "ar d</w>",
      "w or",
      "k ing</w>",
      "j u",
      "hel p</w>",
      "ea r</w>",
      "bo y</w>",
      "o d</w>",
      "d i",
      "a s</w>",
      "so me</w>",
      "th in",
      "d id</w>",
      "se e</w>",
      "w ould</w>",
      "ou r</w>",
      "no w</w>",
      "p a",
      "s i",
      "mo mmy</w>",
      "ma ke</w>",
      "sa ys</w>",
      "a way</w>",
      "to ge",
      "toge ther</w>",
      "s ed</w>",
      "l u",
      "l ly</w>",
      "ra n</w>",
      "star ted</w>",
      "l d",
      "o ther</w>",
      "wan t</w>",
      "ma de</w>",
      "ca me</w>",
      "some thing</w>",
      "r ou",
      "e t</w>",
      "s ho",
      "t e</w>",
      "par k</w>",
      "g i",
      "a n</w>",
      "n i",
      "o p",
      "ma n</w>",
      "re e</w>",
      "ex c",
      "it ed</w>",
      "s car",
      "sa d</w>",
      "a b",
      "wa l",
      "on g</w>",
      "a ga",
      "ti m</w>",
      "go t</w>",
      "m p",
      "th an",
      "t h</w>",
      "s h</w>",
      "ho me</w>",
      "aga in</w>",
      "g g",
      "f ound</w>",
      "ri ed</w>",
      "bir d</w>",
      "wh o</w>",
      "pu t</w>",
      "p o",
      "pp ed</w>",
      "q u",
      "mo re</w>",
      "an g",
      "play ing</w>",
      "lo w",
      "le t</w>",
      "g h</w>",
      "a l</w>",
      "d ec",
      "l s</w>",
      "thin gs</w>",
      "j a",
      "li ked</w>",
      "da d</w>",
      "an d",
      "n a</w>",
      "n o</w>",
      "y es</w>",
      "r ed</w>",
      "dec id",
      "n y</w>",
      "exc ited</w>",
      "frien d</w>",
      "ge t</w>",
      "decid ed</w>",
      "h e",
      "loo k</w>",
      "s ti",
      "scar ed</w>",
      "th is</w>",
      "ou se</w>",
      "do wn</w>",
      "s ar",
      "an na</w>",
      "sa m</w>",
      "y our</w>",
      "ou s</w>",
      "th ou",
      "wi ll</w>",
      "c lo",
      "b y</w>",
      "go od</w>",
      "k s</w>",
      "ver y",
      "e very",
      "do g</w>",
      "wa ys</w>",
      "c ou",
      "ma x</w>",
      "u se</w>",
      "g r",
      "so r",
      "sp ec",
      "ea ch</w>",
      "f ind</w>",
      "n ed</w>",
      "ou t",
      "o r</w>",
      "al ways</w>",
      "d id",
      "to ok</w>",
      "ab out</w>",
      "to ys</w>",
      "le ar",
      "o m</w>",
      "m b",
      "c u",
      "did n</w>",
      "a f",
      "out side</w>",
      "s k",
      "er s</w>",
      "l ea",
      "t ree</w>",
      "l led</w>",
      "f e",
      "g ra",
      "en ed</w>",
      "p re",
      "b b",
      "ch ed</w>",
      "d e",
      "spec i",
      "ho w</w>",
      "u gh",
      "w hi",
      "o ld</w>",
      "g e</w>",
      "tu r",
      "co me</w>",
      "thou ght</w>",
      "ro om</w>",
      "f in",
      "ta ke</w>",
      "sor ry</w>",
      "an y</w>",
      "speci al</w>",
      "w o",
      "in side</w>",
      "k new</w>",
      "su dd",
      "tt er</w>",
      "an t</w>",
      "p e",
      "pi c",
      "e very</w>",
      "d on</w>",
      "ld n</w>",
      "ca r</w>",
      "s w",
      "d y</w>",
      "to y</w>",
      "t w",
      "ju st</w>",
      "en ly</w>",
      "sudd enly</w>",
      "en d</w>",
      "e v",
      "gg ed</w>",
      "i f</w>",
      "an i",
      "fo r",
      "ba ll</w>",
      "e ful</w>",
      "i s",
      "k now</w>",
      "h ouse</w>",
      "b ro",
      "mu ch</w>",
      "o k",
      "sp o",
      "af ter</w>",
      "l ou",
      "ja ck</w>",
      "k e",
      "sh ed</w>",
      "ck s</w>",
      "ga ve</w>",
      "t ried</w>",
      "in to</w>",
      "ea t</w>",
      "to ld</w>",
      "o f",
      "p rou",
      "he ard</w>",
      "t y</w>",
      "wa ter</w>",
      "ne ver</w>",
      "mi a</w>",
      "wa t",
      "d er",
      "sar a</w>",
      "s el",
      "play ed</w>",
      "o ver</w>",
      "bo x</w>",
      "r s</w>",
      "la ugh",
      "cou ldn</w>",
      "ca use</w>",
      "prou d</w>",
      "c y</w>",
      "i ce</w>",
      "hu gged</w>",
      "n ny</w>",
      "be cause</w>",
      "y ing</w>",
      "wa r",
      "f e</w>",
      "m any</w>",
      "wh ere</w>",
      "st a",
      "ex p",
      "m ar",
      "h ea",
      "s ma",
      "an y",
      "it e</w>",
      "l es</w>",
      "al ly</w>",
      "f low",
      "b ea",
      "b ear</w>",
      "k es</w>",
      "ee p</w>",
      "ni ce</w>",
      "ani ma",
      "co m",
      "b le</w>",
      "v ing</w>",
      "sh in",
      "tu re</w>",
      "t ing</w>",
      "ar d",
      "st r",
      "e ar",
      "m a</w>",
      "un ti",
      "f f",
      "el l</w>",
      "b ra",
      "su re</w>",
      "than k</w>",
      "r p",
      "g re",
      "unti l</w>",
      "sma ll</w>",
      "lear ned</w>",
      "it s</w>",
      "ri ght</w>",
      "a d",
      "dd y</w>",
      "so on</w>",
      "be tter</w>",
      "every one</w>",
      "f t</w>",
      "ev en</w>",
      "c ed</w>",
      "c rea",
      "be st</w>",
      "hu r",
      "n ing</w>",
      "t ru",
      "v es</w>",
      "car eful</w>",
      "s s",
      "g ard",
      "exp lo",
      "er ed</w>",
      "c at</w>",
      "f ee",
      "qu i",
      "bea u",
      "of f</w>",
      "gard en</w>",
      "sk y</w>",
      "lo ve</w>",
      "than ked</w>",
      "lo w</w>",
      "mi ly</w>",
      "laugh ed</w>",
      "sa y</w>",
      "z ed</w>",
      "li st",
      "fe el",
      "sel f</w>",
      "hel p",
      "g u",
      "l a</w>",
      "t e",
      "beau ti",
      "le w</w>",
      "s li",
      "beauti ful</w>",
      "l ong</w>",
      "lo ts</w>",
      "lou d</w>",
      "sti ll</w>",
      "f ly</w>",
      "anima ls</w>",
      "p t</w>",
      "k ind</w>",
      "c hi",
      "jo h",
      "bo th</w>",
      "r in",
      "gi ve</w>",
      "l ing</w>",
      "d ed</w>",
      "re st</w>",
      "m on",
      "e ver</w>",
      "an e</w>",
      "sa fe</w>",
      "tw o</w>",
      "m es</w>",
      "spo t</w>",
      "i l</w>",
      "ok ay</w>",
      "fee l</w>",
      "t ry</w>",
      "op le</w>",
      "pe ople</w>",
      "d er</w>",
      "li ved</w>",
      "p ro",
      "tt y</w>",
      "wal ked</w>",
      "ang ry</w>",
      "v en",
      "gr ound</w>",
      "su rp",
      "surp ri",
      "i se</w>",
      "lu cy</w>",
      "in e</w>",
      "h ard</w>",
      "m ea",
      "st er</w>",
      "r un",
      "fa mily</w>",
      "hur t</w>",
      "su n</w>",
      "f lew</w>",
      "c on",
      "ba d</w>",
      "ca lled</w>",
      "y ed</w>",
      "bra ve</w>",
      "i mp",
      "sh are</w>",
      "whi le</w>",
      "o l</w>",
      "fa st</w>",
      "id e",
      "p e</w>",
      "fo re</w>",
      "be fore</w>",
      "rea t</w>",
      "c ra",
      "ke pt</w>",
      "dd ed</w>",
      "a c",
      "d u",
      "ne x",
      "pre tty</w>",
      "w in",
      "fi sh</w>",
      "go ing</w>",
      "sho w",
      "d ra",
      "joh n</w>",
      "lo t</w>",
      "nex t</w>",
      "wh y</w>",
      "shin y</w>",
      "r ing</w>",
      "no ise</w>",
      "c li",
      "ad ven",
      "sh ould</w>",
      "op ened</w>",
      "ru n</w>",
      "p er",
      "y e</w>",
      "k it",
      "al so</w>",
      "do or</w>",
      "gr and",
      "d ly</w>",
      "n er</w>",
      "lu e</w>",
      "h an",
      "explo re</w>",
      "hu g</w>",
      "co lo",
      "ide a</w>",
      "€ ™</w>",
      "t ra",
      "no dded</w>",
      "v o",
      "k eep</w>",
      "v e",
      "feel ing</w>",
      "ha s</w>",
      "pic ked</w>",
      "ma y",
      "wal king</w>",
      "pl ea",
      "on s</w>",
      "ch e",
      "may be</w>",
      "no ti",
      "ri es</w>",
      "be ing</w>",
      "c e",
      "st u",
      "t ou",
      "c ha",
      "t ch</w>",
      "go o",
      "smi le</w>",
      "ne ed</w>",
      "j i",
      "mu m</w>",
      "t al",
      "loo king</w>",
      "fin ally</w>",
      "b ye</w>",
      "re p",
      "sho w</w>",
      "me mb",
      "d re",
      "ju mp",
      "re memb",
      "h ere</w>",
      "e yes</w>",
      "fo od</w>",
      "b rea",
      "flow ers</w>",
      "su e</w>",
      "sto pped</w>",
      "b lue</w>",
      "w on",
      "lea n</w>",
      "c ho",
      "i ous</w>",
      "en ny</w>",
      "en jo",
      "g reat</w>",
      "bo b</w>",
      "a te</w>",
      "or t",
      "c ked</w>",
      "g la",
      "c lean</w>",
      "sh ar",
      "imp ort",
      "han ds</w>",
      "h and</w>",
      "se t</w>",
      "li ed</w>",
      "de li",
      "en ts</w>",
      "sh ou",
      "pla ce</w>",
      "wor k</w>",
      "noti ced</w>",
      "s ha",
      "t in",
      "in ed</w>",
      "goo d",
      "list en</w>",
      "hea d</w>",
      "sli de</w>",
      "r ying</w>",
      "fo rest</w>",
      "en t",
      "ra bb",
      "import ant</w>",
      "fo l",
      "a h</w>",
      "a ma",
      "ff er",
      "rep lied</w>",
      "d ing</w>",
      "ne e",
      "ni ght</w>",
      "show ed</w>",
      "s er</w>",
      "m s</w>",
      "di ffer",
      "bb ed</w>",
      "tru ck</w>",
      "s qu",
      "ear s</w>",
      "p er</w>",
      "m p</w>",
      "l o</w>",
      "sar ah</w>",
      "plea se</w>",
      "t er",
      "b ed</w>",
      "st ay</w>",
      "g er</w>",
      "ro w</w>",
      "wat ched</w>",
      "good bye</w>",
      "ck et</w>",
      "ck ly</w>",
      "fa ce</w>",
      "rea li",
      "rabb it</w>",
      "f ir",
      "y u",
      "wal k</w>",
      "ti on</w>",
      "d an",
      "cu ri",
      "vo ice</w>",
      "qui ckly</w>",
      "be en</w>",
      "tt er",
      "da ddy</w>",
      "m ent</w>",
      "hel lo</w>",
      "ab le</w>",
      "w r",
      "differ ent</w>",
      "sto re</w>",
      "be came</w>",
      "fir st</w>",
      "sto p</w>",
      "le e",
      "hi gh</w>",
      "j ane</w>",
      "ang e</w>",
      "tur es</w>",
      "e y</w>",
      "rea dy</w>",
      "clo ser</w>",
      "d ro",
      "ca ke</w>",
      "b lo",
      "curi ous</w>",
      "a m</w>",
      "y el",
      "grand ma</w>",
      "li la</w>",
      "won der",
      "wa it</w>",
      "fa v",
      "o w",
      "th ree</w>",
      "any more</w>",
      "mea n</w>",
      "sw ee",
      "bo at</w>",
      "ho le</w>",
      "on ly</w>",
      "rou gh</w>",
      "flow er</w>",
      "u s</w>",
      "bu nny</w>",
      "bo ok</w>",
      "un der",
      "do ll</w>",
      "str ong</w>",
      "gra bbed</w>",
      "do es</w>",
      "l ls</w>",
      "ti mes</w>",
      "ta ble</w>",
      "h er",
      "c la",
      "fel l</w>",
      "is y</w>",
      "bir ds</w>",
      "in s</w>",
      "ch en</w>",
      "kit chen</w>",
      "war m</w>",
      "sto ry</w>",
      "do w</w>",
      "p on",
      "jump ed</w>",
      "gla d</w>",
      "help ed</w>",
      "s na",
      "adven ture</w>",
      "rea d</w>",
      "k no",
      "se es</w>",
      "se e",
      "p rin",
      "fin i",
      "b ar",
      "happ ened</w>",
      "d in",
      "c ry</w>",
      "s hi",
      "co r",
      "shou ted</w>",
      "un der</w>",
      "dre ss</w>",
      "yu mmy</w>",
      "pre t",
      "s ing</w>",
      "to mmy</w>",
      "tt ing</w>",
      "ha ving</w>",
      "st e",
      "rea ched</w>",
      "f ar",
      "reali zed</w>",
      "c are</w>",
      "rea lly</w>",
      "jo e</w>",
      "low ed</w>",
      "gra ss</w>",
      "wat ch</w>",
      "b right</w>",
      "op en</w>",
      "s y</w>",
      "s sed</w>",
      "u sed</w>",
      "the rs</w>",
      "s m",
      "fav or",
      "and y</w>",
      "b it</w>",
      "t re",
      "ro ck</w>",
      "favor ite</w>",
      "com ing</w>",
      "ga me</w>",
      "happ i",
      "z y</w>",
      "id s</w>",
      "el e",
      "r se</w>",
      "ga n</w>",
      "loo ks</w>",
      "r an",
      "ma gi",
      "c re",
      "wo w</w>",
      "th rough</w>",
      "in k</w>",
      "k ids</w>",
      "k en</w>",
      "h un",
      "p h",
      "co ok",
      "v i",
      "mo r",
      "lear n</w>",
      "d one</w>",
      "d ar",
      "cook i",
      "la dy</w>",
      "be gan</w>",
      "ma king</w>",
      "n u",
      "some times</w>",
      "bu tter",
      "m self</w>",
      "hi mself</w>",
      "st le</w>",
      "fu lly</w>",
      "wor ld</w>",
      "th an</w>",
      "car s</w>",
      "li e",
      "pro mi",
      "wa ved</w>",
      "w s</w>",
      "f loo",
      "m ouse</w>",
      "pon d</w>",
      "n ear</w>",
      "to r</w>",
      "ec t</w>",
      "pa in",
      "ti red</w>",
      "a pp",
      "na me</w>",
      "l an",
      "ou r",
      "w e",
      "st and</w>",
      "ke y</w>",
      "to p</w>",
      "par ents</w>",
      "fu nny</w>",
      "an other</w>",
      "wor ry</w>",
      "c ried</w>",
      "blo cks</w>",
      "bo o",
      "se en</w>",
      "t ea",
      "da isy</w>",
      "gre en</w>",
      "gh t",
      "ta st",
      "do ing</w>",
      "d ri",
      "tou ch</w>",
      "surpri se</w>",
      "le ss",
      "sa lly</w>",
      "ca tch</w>",
      "bu i",
      "ho pped</w>",
      "thin k</w>",
      "h ind</w>",
      "so ft</w>",
      "l on",
      "li kes</w>",
      "be hind</w>",
      "floo r</w>",
      "s wi",
      "pa per</w>",
      "y ears</w>",
      "tur ned</w>",
      "less on</w>",
      "bro ther</w>",
      "p s</w>",
      "crea m</w>",
      "wi shed</w>",
      "tre es</w>",
      "yel low</w>",
      "pp y</w>",
      "s lee",
      "run ning</w>",
      "wor ked</w>",
      "fu ll</w>",
      "pi ck</w>",
      "mo ve</w>",
      "s co",
      "te ddy</w>",
      "c ro",
      "y ard</w>",
      "b ri",
      "z e</w>",
      "happi ly</w>",
      "b enny</w>",
      "car e",
      "surpri sed</w>",
      "m er</w>",
      "ou gh</w>",
      "lo st</w>",
      "m b</w>",
      "ba by</w>",
      "butter fly</w>",
      "care fully</w>",
      "t ri",
      "c ious</w>",
      "hel d</w>",
      "su n",
      "rememb ered</w>",
      "li ght</w>",
      "z ing</w>",
      "nee ded</w>",
      "t ell</w>",
      "c es</w>",
      "ch ing</w>",
      "co ld</w>",
      "co ol</w>",
      "w ing</w>",
      "re l</w>",
      "ck y</w>",
      "le ft</w>",
      "h ear</w>",
      "dar k</w>",
      "any thing</w>",
      "cli mb",
      "t rea",
      "bi lly</w>",
      "wr ong</w>",
      "d rea",
      "r en</w>",
      "chi ld",
      "f lu",
      "sa t</w>",
      "pic ture</w>",
      "m in",
      "child ren</w>",
      "enjo yed</w>",
      "p ed</w>",
      "fol lowed</w>",
      "a gre",
      "in gs</w>",
      "b el",
      "bu y</w>",
      "k i",
      "ar ri",
      "d ir",
      "s ound</w>",
      "d ge</w>",
      "w el",
      "some one</w>",
      "frien dly</w>",
      "as k</w>",
      "deli cious</w>",
      "fini shed</w>",
      "it ing</w>",
      "clo se</w>",
      "her self</w>",
      "m ing</w>",
      "con tin",
      "contin u",
      "n s</w>",
      "fro g</w>",
      "z o",
      "l ying</w>",
      "w er</w>",
      "every where</w>",
      "bro ken</w>",
      "g ent",
      "win dow</w>",
      "a my</w>",
      "ra in</w>",
      "mo lly</w>",
      "el se</w>",
      "he ar",
      "sti ck</w>",
      "f la",
      "squ ir",
      "arri ved</w>",
      "colo rs</w>",
      "o wn</w>",
      "wonder ful</w>",
      "st ea",
      "sw ing</w>",
      "en s</w>",
      "mo st</w>",
      "w ind</w>",
      "g one</w>",
      "er ous</w>",
      "cli mb</w>",
      "boo ks</w>",
      "c oun",
      "swee t</w>",
      "fi lled</w>",
      "wan ts</w>",
      "war ds</w>",
      "ch es</w>",
      "t en</w>",
      "every thing</w>",
      "s n</w>",
      "li on</w>",
      "ba g</w>",
      "agre ed</w>",
      "ca stle</w>",
      "hi ll</w>",
      "mo ther</w>",
      "me t</w>",
      "p ink</w>",
      "ta ll</w>",
      "continu ed</w>",
      "la ter</w>",
      "lea ves</w>",
      "ju mp</w>",
      "f ru",
      "r ful</w>",
      "la u",
      "fi re</w>",
      "ge tting</w>",
      "under stand</w>",
      "wo o",
      "en ough</w>",
      "fa r</w>",
      "p es</w>",
      "ma ma</w>",
      "cooki es</w>",
      "o h</w>",
      "in g",
      "la te</w>",
      "mor ning</w>",
      "st re",
      "po in",
      "en ce</w>",
      "ho t</w>",
      "sta yed</w>",
      "si g",
      "s wa",
      "hun g",
      "ld ing</w>",
      "lau gh</w>",
      "sp ar",
      "h on",
      "ha ir</w>",
      "scar y</w>",
      "hung ry</w>",
      "bo w</w>",
      "for got</w>",
      "to day</w>",
      "me ss</w>",
      "ri de</w>",
      "din ner</w>",
      "v is",
      "ma kes</w>",
      "b each</w>",
      "o thers</w>",
      "t rying</w>",
      "w et</w>",
      "l la",
      "fe w</w>",
      "ama zing</w>",
      "c le",
      "ba l",
      "climb ed</w>",
      "pic tures</w>",
      "smi les</w>",
      "jo y</w>",
      "list ened</w>",
      "squir rel</w>",
      "per f",
      "g on</w>",
      "as ks</w>",
      "s es</w>",
      "whi te</w>",
      "bal lo",
      "clo the",
      "a ir</w>",
      "clothe s</w>",
      "ji ll</w>",
      "el d</w>",
      "ra l</w>",
      "lea ve</w>",
      "d ang",
      "tal k</w>",
      "al one</w>",
      "fi x</w>",
      "pu ppy</w>",
      "mo ment</w>",
      "li e</w>",
      "c le</w>",
      "u ght</w>",
      "ta il</w>",
      "ro a",
      "rou ght</w>",
      "b rought</w>",
      "sm el",
      "pu lled</w>",
      "po li",
      "se ar",
      "w ell</w>",
      "sh el",
      "ff y</w>",
      "du ck</w>",
      "fo x</w>",
      "str ange</w>",
      "p en",
      "cu t</w>",
      "woo ds</w>",
      "w l</w>",
      "mo ral</w>",
      "st ing</w>",
      "k et</w>",
      "ir y</w>",
      "ce ss</w>",
      "z z",
      "mi ght</w>",
      "pp ing</w>",
      "s it",
      "ma g",
      "wa ited</w>",
      "wa sn</w>",
      "flu ffy</w>",
      "mu si",
      "di sa",
      "s low",
      "sh es</w>",
      "tur n</w>",
      "ama zed</w>",
      "hi de</w>",
      "ti e</w>",
      "run s</w>",
      "to wards</w>",
      "si lly</w>",
      "w on</w>",
      "th y</w>",
      "pl an",
      "b la",
      "ow ner</w>",
      "qu e",
      "ca l",
      "f lying</w>",
      "spar k",
      "thin ks</w>",
      "li ving</w>",
      "shar ed</w>",
      "slow ly</w>",
      "st ed</w>",
      "dra w</w>",
      "s er",
      "s on</w>",
      "v y</w>",
      "promi sed</w>",
      "g ro",
      "b er",
      "perf ect</w>",
      "r el",
      "pret end</w>",
      "l thy</w>",
      "c ti",
      "ra ce</w>",
      "w ear</w>",
      "jo b</w>",
      "be lie",
      "mar y</w>",
      "ta in</w>",
      "t el",
      "sp i",
      "la ke</w>",
      "s ca",
      "gg er</w>",
      "d eep</w>",
      "par ty</w>",
      "mon ey</w>",
      "s and</w>",
      "an sw",
      "s mar",
      "v en</w>",
      "pi ec",
      "piec es</w>",
      "ra in",
      "s oun",
      "fa ster</w>",
      "p et</w>",
      "b ran",
      "colo rful</w>",
      "s no",
      "wor ried</w>",
      "ev en",
      "s pla",
      "dd le</w>",
      "s and",
      "ba ck",
      "dan ce</w>",
      "bro ke</w>",
      "c andy</w>",
      "t eful</w>",
      "gra teful</w>",
      "mon ster</w>",
      "ex pla",
      "ca l</w>",
      "bi gger</w>",
      "rememb er</w>",
      "wel come</w>",
      "win gs</w>",
      "bu g</w>",
      "l un",
      "h i</w>",
      "e m",
      "su ch</w>",
      "sig n</w>",
      "b lan",
      "bo ard</w>",
      "s si",
      "bro wn</w>",
      "tra in</w>",
      "ing ing</w>",
      "vis it</w>",
      "m ou",
      "bi ke</w>",
      "s it</w>",
      "i gh",
      "dang erous</w>",
      "wor ds</w>",
      "b an",
      "help ing</w>",
      "far mer</w>",
      "un i",
      "magi cal</w>",
      "prin cess</w>",
      "si ster</w>",
      "l t</w>",
      "musi c</w>",
      "slee p</w>",
      "ac ro",
      "a p",
      "d ry</w>",
      "do lls</w>",
      "smar t</w>",
      "re w</w>",
      "p as",
      "c i",
      "to wer</w>",
      "acro ss</w>",
      "pa ti",
      "m ine</w>",
      "tu ally</w>",
      "sno w",
      "rea ch</w>",
      "disa pp",
      "dir ty</w>",
      "dra gon</w>",
      "hea vy</w>",
      "jo in</w>",
      "tw ins</w>",
      "do c",
      "y ear</w>",
      "th rew</w>",
      "c rying</w>",
      "ou rs</w>",
      "ea ting</w>",
      "b ite</w>",
      "st ra",
      "sa me</w>",
      "wi th",
      "belie ve</w>",
      "ste pped</w>",
      "ti ght</w>",
      "wa ll</w>",
      "o c",
      "g ed</w>",
      "ji mmy</w>",
      "ear ed</w>",
      "car ro",
      "co l",
      "ri ver</w>",
      "fi eld</w>",
      "s an",
      "mu mmy</w>",
      "p ra",
      "clo sed</w>",
      "w ea",
      "s ong</w>",
      "w ou",
      "star t</w>",
      "ballo on</w>",
      "stu ck</w>",
      "ho ped</w>",
      "e ly</w>",
      "ve ly</w>",
      "feel s</w>",
      "with out</w>",
      "mi l",
      "s cho",
      "qui et</w>",
      "cra y",
      "fu r",
      "cha ir</w>",
      "scho ol</w>",
      "ba sk",
      "on es</w>",
      "e st</w>",
      "bo wl</w>",
      "fa iry</w>",
      "a ge</w>",
      "b en",
      "f re",
      "swi m</w>",
      "cou rse</w>",
      "is es</w>",
      "mou th</w>",
      "sh ing</w>",
      "em ma</w>",
      "e ce</w>",
      "ch ee",
      "cla pped</w>",
      "to wn</w>",
      "c an",
      "bla ck</w>",
      "sto od</w>",
      "wou ldn</w>",
      "x ed</w>",
      "com for",
      "mu st</w>",
      "c her</w>",
      "pi ece</w>",
      "fo o",
      "tt ed</w>",
      "ph one</w>",
      "l ar",
      "pu shed</w>",
      "doc tor</w>",
      "chi ld</w>",
      "gent le</w>",
      "pl ane</w>",
      "pain t</w>",
      "s mo",
      "dro ve</w>",
      "ne igh",
      "e ss</w>",
      "g her</w>",
      "y oun",
      "anima l</w>",
      "c ing</w>",
      "c id",
      "d rin",
      "sw ings</w>",
      "brea k</w>",
      "r ay</w>",
      "h ar",
      "even tually</w>",
      "sk i",
      "hi gher</w>",
      "shin e</w>",
      "ac cid",
      "blan ket</w>",
      "magi c</w>",
      "ne ar",
      "al ong</w>",
      "be e</w>",
      "sa u",
      "y st",
      "ga mes</w>",
      "no ises</w>",
      "tea cher</w>",
      "hu gs</w>",
      "expla ined</w>",
      "trea sure</w>",
      "mo ved</w>",
      "t es</w>",
      "tur ns</w>",
      "lon ger</w>",
      "z i",
      "che ered</w>",
      "p ea",
      "bui ld</w>",
      "l f</w>",
      "r n</w>",
      "ho ld</w>",
      "ar y</w>",
      "san g</w>",
      "r t</w>",
      "enjo y</w>",
      "pret en",
      "j our",
      "co mp",
      "m it",
      "t rou",
      "sho es</w>",
      "s ou",
      "s inging</w>",
      "thou gh</w>",
      "tin y</w>",
      "sto ries</w>",
      "in stea",
      "instea d</w>",
      "ver ed</w>",
      "to n</w>",
      "p a</w>",
      "lon ely</w>",
      "wi se</w>",
      "adven tures</w>",
      "it e",
      "t ly</w>",
      "wi sh</w>",
      "f ence</w>",
      "up set</w>",
      "and ed</w>",
      "mon key</w>",
      "fo re",
      "l er</w>",
      "app le</w>",
      "se cre",
      "t a</w>",
      "sho ok</w>",
      "star s</w>",
      "sp a",
      "ss y</w>",
      "youn g</w>",
      "ow l</w>",
      "sta r</w>",
      "no thing</w>",
      "ne y</w>",
      "l and</w>",
      "na ugh",
      "naugh ty</w>",
      "lun ch</w>",
      "sou p</w>",
      "fi re",
      "fu sed</w>",
      "ja r</w>",
      "l ay</w>",
      "near by</w>",
      "ca ught</w>",
      "explo ring</w>",
      "ta king</w>",
      "pu rp",
      "sa mmy</w>",
      "purp le</w>",
      "po cket</w>",
      "se a</w>",
      "le c",
      "ro cks</w>",
      "fi ght</w>",
      "dro pped</w>",
      "ou ght</w>",
      "for get</w>",
      "su nny</w>",
      "wo ke</w>",
      "back yard</w>",
      "pati ent</w>",
      "sha pes</w>",
      "or ange</w>",
      "see med</w>",
      "b oun",
      "swa m</w>",
      "sa i",
      "da ys</w>",
      "wh en",
      "when ever</w>",
      "bo dy</w>",
      "hear t</w>",
      "com es</w>",
      "re lie",
      "ben ch</w>",
      "su r",
      "ti ve</w>",
      "h it</w>",
      "f it</w>",
      "na p</w>",
      "stre et</w>",
      "r a</w>",
      "s crea",
      "ju ice</w>",
      "ugh ter</w>",
      "soun ds</w>",
      "gg led</w>",
      "fa ll</w>",
      "ta kes</w>",
      "lu cky</w>",
      "v al",
      "bu sy</w>",
      "a li",
      "no se</w>",
      "rea l</w>",
      "sit ting</w>",
      "ar ms</w>",
      "shi p</w>",
      "s now</w>",
      "fol low</w>",
      "ho lding</w>",
      "m r</w>",
      "ma d</w>",
      "war d</w>",
      "cor n</w>",
      "ar m</w>",
      "ght ly</w>",
      "tw ee",
      "k ite</w>",
      "bir th",
      "wonder ed</w>",
      "swi m",
      "ck ing</w>",
      "pu ll</w>",
      "far m</w>",
      "c ir",
      "birth day</w>",
      "so l",
      "j e",
      "da ughter</w>",
      "c lu",
      "lo ves</w>",
      "bo b",
      "bran ch</w>",
      "dri ver</w>",
      "v a",
      "ra id</w>",
      "af raid</w>",
      "r ound</w>",
      "ele ph",
      "k in",
      "eleph ant</w>",
      "an ce</w>",
      "ne st</w>",
      "ba th",
      "le ss</w>",
      "bask et</w>",
      "cu te</w>",
      "chee se</w>",
      "p ing</w>",
      "secre t</w>",
      "c eful</w>",
      "be e",
      "in ter",
      "relie ved</w>",
      "bu cket</w>",
      "promi se</w>",
      "fore ver</w>",
      "so a",
      "er ful</w>",
      "gi ft</w>",
      "b ring</w>",
      "si ck</w>",
      "a tt",
      "tou ched</w>",
      "he y</w>",
      "po t</w>",
      "k ne",
      "t ens</w>",
      "hon ey</w>",
      "oun tain</w>",
      "rain bow</w>",
      "w ra",
      "bu bb",
      "exc ite",
      "b le",
      "j enny</w>",
      "drea m</w>",
      "hu ge</w>",
      "drin k</w>",
      "brea d</w>",
      "ir s</w>",
      "spo on</w>",
      "s a</w>",
      "on to</w>",
      "i mag",
      "laugh ing</w>",
      "li fe</w>",
      "t wi",
      "i g",
      "gi ves</w>",
      "inter e",
      "o th</w>",
      "s c",
      "f ea",
      "on gs</w>",
      "exc iting</w>",
      "swim ming</w>",
      "co o",
      "la ce</w>",
      "bo ttle</w>",
      "co zy</w>",
      "a tion</w>",
      "er y</w>",
      "b ru",
      "e mily</w>",
      "mil k</w>",
      "di sco",
      "accid ent",
      "sto r",
      "t ent</w>",
      "mit tens</w>",
      "su c",
      "cle an",
      "pu ts</w>",
      "sun shine</w>",
      "bu sh</w>",
      "accident ally</w>",
      "wat ching</w>",
      "ca ve</w>",
      "j un",
      "j en</w>",
      "poin ted</w>",
      "t reat</w>",
      "ho pe</w>",
      "pl es</w>",
      "or t</w>",
      "pla n</w>",
      "o se</w>",
      "neigh bo",
      "e g",
      "shar p</w>",
      "mar k</w>",
      "po w",
      "t ton</w>",
      "g row</w>",
      "du cks</w>",
      "mb er</w>",
      "tal ked</w>",
      "s ea",
      "smi ling</w>",
      "c lou",
      "jour ney</w>",
      "col lec",
      "ji m</w>",
      "par t</w>",
      "any one</w>",
      "ap ples</w>",
      "o w</w>",
      "wo man</w>",
      "i cy</w>",
      "sear ched</w>",
      "the se</w>",
      "wor d</w>",
      "b ought</w>",
      "pro ble",
      "st ru",
      "ma ch",
      "sand wi",
      "sp id",
      "hea lthy</w>",
      "f ree</w>",
      "ro pe</w>",
      "si e</w>",
      "co at</w>",
      "cray ons</w>",
      "en ing</w>",
      "m ous</w>",
      "lla r</w>",
      "pi le</w>",
      "shel f</w>",
      "w in</w>",
      "li es</w>",
      "i l",
      "bu tton</w>",
      "snow man</w>",
      "intere sting</w>",
      "f r",
      "in v",
      "w ide</w>",
      "tast y</w>",
      "f al",
      "clou ds</w>",
      "and ing</w>",
      "re spec",
      "vi lla",
      "pre s",
      "smel led</w>",
      "ear ing</w>",
      "fa ir</w>",
      "m ind</w>",
      "grand pa</w>",
      "f ted</w>",
      "cle ver</w>",
      "stor m</w>",
      "shin ing</w>",
      "ro se</w>",
      "fr on",
      "th i",
      "comfor table</w>",
      "pro t",
      "d ea",
      "fron t</w>",
      "whi ch</w>",
      "screa med</w>",
      "val u",
      "per son</w>",
      "ld er</w>",
      "l li",
      "ne ss</w>",
      "t ries</w>",
      "p hi",
      "mu d</w>",
      "g ani",
      "pra cti",
      "trou ble</w>",
      "ad mi",
      "or gani",
      "sh y</w>",
      "ja ke</w>",
      "sna ke</w>",
      "pu zz",
      "m an",
      "cu r",
      "g ge",
      "sho p</w>",
      "spo tted</w>",
      "fi gh",
      "c up</w>",
      "ber ries</w>",
      "m yst",
      "lo ck</w>",
      "sna ck</w>",
      "min u",
      "di s",
      "gent ly</w>",
      "dan ced</w>",
      "li sa</w>",
      "roa d</w>",
      "go es</w>",
      "ne t</w>",
      "li t</w>",
      "lo vely</w>",
      "app eared</w>",
      "g le</w>",
      "lee p</w>",
      "as leep</w>",
      "ho rse</w>",
      "si gh",
      "que sti",
      "la r</w>",
      "ro lled</w>",
      "answ er</w>",
      "w earing</w>",
      "fru it</w>",
      "con fused</w>",
      "k ee",
      "w hole</w>",
      "di st",
      "for give</w>",
      "t un",
      "pa th</w>",
      "shar ing</w>",
      "k is",
      "pla ces</w>",
      "co lou",
      "imp re",
      "ea n</w>",
      "cor ner</w>",
      "de er</w>",
      "g en",
      "t ee",
      "de pen",
      "tee th</w>",
      "ri ch</w>",
      "u r",
      "z zy</w>",
      "dir t</w>",
      "ch ar",
      "st anding</w>",
      "a ts</w>",
      "y a",
      "ma tter</w>",
      "t le</w>",
      "ru de</w>",
      "f lo",
      "su pp",
      "gi ant</w>",
      "wa ve</w>",
      "ga te</w>",
      "spid er</w>",
      "tast ed</w>",
      "preten ded</w>",
      "cooki e</w>",
      "wi ld</w>",
      "b les</w>",
      "ss es</w>",
      "mach ine</w>",
      "pp er</w>",
      "p ee",
      "dd er</w>",
      "oc ean</w>",
      "st y</w>",
      "no r",
      "pic ni",
      "sp ent</w>",
      "to mor",
      "kit ty</w>",
      "tru e</w>",
      "fur ry</w>",
      "me di",
      "tomor row</w>",
      "fa ces</w>",
      "o ven</w>",
      "figh ting</w>",
      "zo o</w>",
      "fee t</w>",
      "ni e</w>",
      "mi sta",
      "th row</w>",
      "cho co",
      "proble m</w>",
      "b s</w>",
      "pe ter</w>",
      "pu sh</w>",
      "pa ck</w>",
      "an s</w>",
      "help ful</w>",
      "te st</w>",
      "cou ch</w>",
      "sm ell</w>",
      "c er</w>",
      "la st</w>",
      "dri ve</w>",
      "s low</w>",
      "bu gs</w>",
      "co w</w>",
      "picni c</w>",
      "co in</w>",
      "tal king</w>",
      "e mb",
      "la dder</w>",
      "w ha",
      "lan ce</w>",
      "e ts</w>",
      "we l</w>",
      "wr ite</w>",
      "bui lding</w>",
      "ro bo",
      "happ en</w>",
      "wo re</w>",
      "c ele",
      "villa ge</w>",
      "hi ding</w>",
      "ne ck",
      "fu r</w>",
      "pu ddle</w>",
      "kne e</w>",
      "el s</w>",
      "cha sed</w>",
      "gra b</w>",
      "tri p</w>",
      "ca ll</w>",
      "cal m</w>",
      "ca ge</w>",
      "b lew</w>",
      "g es</w>",
      "wa iting</w>",
      "l ine</w>",
      "of f",
      "fini sh</w>",
      "f f</w>",
      "choco late</w>",
      "trea ts</w>",
      "po ol</w>",
      "ban an",
      "can not</w>",
      "emb ar",
      "sa ck</w>",
      "ve l</w>",
      "chi ck",
      "ho p</w>",
      "embar ra",
      "s ongs</w>",
      "str ing</w>",
      "tast e</w>",
      "ee l</w>",
      "b ell</w>",
      "lea f</w>",
      "carro t</w>",
      "lar ge</w>",
      "c up",
      "smo oth</w>",
      "bar ked</w>",
      "sel fish</w>",
      "m ined</w>",
      "st one</w>",
      "pl ant</w>",
      "spla sh</w>",
      "so f",
      "shi rt</w>",
      "c r",
      "fi xed</w>",
      "wa sh</w>",
      "li ve</w>",
      "robo t</w>",
      "clo th</w>",
      "m mer</w>",
      "g ru",
      "le tter</w>",
      "e mp",
      "p y</w>",
      "cele bra",
      "ga the",
      "coun t</w>",
      "w ee",
      "neck lace</w>",
      "mp y</w>",
      "colo r</w>",
      "hi d</w>",
      "hear s</w>",
      "c loud</w>",
      "mi ssed</w>",
      "sp read</w>",
      "cra w",
      "cou ra",
      "re x</w>",
      "be d",
      "joh nny</w>",
      "see k</w>",
      "ki ss</w>",
      "œ i</w>",
      "sti cks</w>",
      "t v</w>",
      "o in",
      "t ro",
      "en g",
      "jun gle</w>",
      "ali ce</w>",
      "s cre",
      "te a</w>",
      "co ra",
      "neighbo r</w>",
      "pi l",
      "s eat</w>",
      "l anded</w>",
      "crea tive</w>",
      "de cora",
      "crea ture</w>",
      "jump ing</w>",
      "pea ceful</w>",
      "ti dy</w>",
      "me et</w>",
      "de ter",
      "ran k</w>",
      "gr ay</w>",
      "b and</w>",
      "t ched</w>",
      "carro ts</w>",
      "low ing</w>",
      "car ry</w>",
      "i a</w>",
      "whi stle</w>",
      "ti c</w>",
      "mo on</w>",
      "for ward</w>",
      "embarra ssed</w>",
      "t each</w>",
      "er t</w>",
      "bu s</w>",
      "kno cked</w>",
      "al most</w>",
      "ang er</w>",
      "disapp oin",
      "f an",
      "tel ls</w>",
      "y our",
      "f ra",
      "mi ss</w>",
      "pa st",
      "bu r",
      "ha med</w>",
      "as hamed</w>",
      "it y</w>",
      "pla te</w>",
      "le gs</w>",
      "b l",
      "s k</w>",
      "ve ge",
      "ti ghtly</w>",
      "sta irs</w>",
      "sa ve</w>",
      "gre w</w>",
      "wit ch</w>",
      "me ant</w>",
      "kit ten</w>",
      "no ds</w>",
      "en ding</w>",
      "sp it",
      "emp ty</w>",
      "k a",
      "under stood</w>",
      "o b",
      "h ard",
      "c y",
      "than k",
      "c el",
      "car ried</w>",
      "prot ect</w>",
      "yel led</w>",
      "j el",
      "ho spit",
      "hon est</w>",
      "wor m</w>",
      "h ours</w>",
      "whi sp",
      "b r",
      "b loo",
      "disappoin ted</w>",
      "le o</w>",
      "cra b</w>",
      "myst er",
      "sh eep</w>",
      "ge ts</w>",
      "hospit al</w>",
      "and le</w>",
      "sna cks</w>",
      "fru stra",
      "u su",
      "sa il</w>",
      "th u",
      "spark ly</w>",
      "te ly</w>",
      "sa fe",
      "ba th</w>",
      "pi zz",
      "do l",
      "dd en</w>",
      "f lies</w>",
      "mea dow</w>",
      "p ri",
      "spi cy</w>",
      "bru sh</w>",
      "brea th</w>",
      "an ts</w>",
      "po or</w>",
      "ea sy</w>",
      "sigh ed</w>",
      "g ers</w>",
      "le ta</w>",
      "hi dden</w>",
      "ba lls</w>",
      "plan ts</w>",
      "bo red</w>",
      "dre w</w>",
      "ta ught</w>",
      "l ling</w>",
      "scar f</w>",
      "n er",
      "puzz le</w>",
      "zo om</w>",
      "bubb les</w>",
      "co ok</w>",
      "z e",
      "kno wing</w>",
      "k in</w>",
      "ar s</w>",
      "bed room</w>",
      "poli te</w>",
      "di e</w>",
      "g rou",
      "sho re</w>",
      "pi ra",
      "myster ious</w>",
      "gen erous</w>",
      "sa ge</w>",
      "pres ent</w>",
      "prin ce</w>",
      "ra di",
      "wo lf</w>",
      "pizz a</w>",
      "frustra ted</w>",
      "wa ves</w>",
      "sh ell</w>",
      "g ly</w>",
      "s our</w>",
      "f le",
      "me ssy</w>",
      "minu tes</w>",
      "t ears</w>",
      "suc ce",
      "f fi",
      "m ountain</w>",
      "pa cked</w>",
      "re turned</w>",
      "ner v",
      "m er",
      "r ro",
      "b it",
      "p ou",
      "slee py</w>",
      "fin ger</w>",
      "u t</w>",
      "clo set</w>",
      "thank ful</w>",
      "pow erful</w>",
      "of fi",
      "e sca",
      "d ness</w>",
      "bri dge</w>",
      "roa r</w>",
      "gru mpy</w>",
      "su sie</w>",
      "pas sed</w>",
      "it a</w>",
      "kis sed</w>",
      "mb le</w>",
      "ss ing</w>",
      "blo ck</w>",
      "c ries</w>",
      "deter mined</w>",
      "fan cy</w>",
      "your self</w>",
      "sandwi ch</w>",
      "wor king</w>",
      "ca ter",
      "ber ry</w>",
      "re min",
      "th ro",
      "gg ing</w>",
      "din o",
      "fi gu",
      "dino sau",
      "ta bles</w>",
      "m o</w>",
      "grou p</w>",
      "che st</w>",
      "gh ts</w>",
      "gathe red</w>",
      "sel ves</w>",
      "sc is",
      "tw ir",
      "sor s</w>",
      "o t</w>",
      "scis sors</w>",
      "en si",
      "of ten</w>",
      "k ni",
      "ro ll</w>",
      "wo od</w>",
      "sti ck",
      "ga r</w>",
      "mb led</w>",
      "s nu",
      "answ ered</w>",
      "u gly</w>",
      "ca se</w>",
      "d es</w>",
      "c les</w>",
      "her o</w>",
      "ro t</w>",
      "ho pping</w>",
      "w ed</w>",
      "car d</w>",
      "pi llar</w>",
      "cater pillar</w>",
      "ensi ve</w>",
      "sa ved</w>",
      "ma il</w>",
      "cy cle</w>",
      "mi x</w>",
      "exp ensive</w>",
      "pi cks</w>",
      "g in",
      "ta ken</w>",
      "el la</w>",
      "wa gged</w>",
      "c l",
      "que en</w>",
      "pi g</w>",
      "sp in</w>",
      "mi ddle</w>",
      "excite ment</w>",
      "bo ring</w>",
      "er o",
      "fin e</w>",
      "medi c",
      "o be",
      "va se</w>",
      "le g</w>",
      "kno wn</w>",
      "e f</w>",
      "g ar",
      "t on",
      "dan cing</w>",
      "ce i",
      "gla ss</w>",
      "cor d</w>",
      "ch ange</w>",
      "nerv ous</w>",
      "su gar</w>",
      "ro cket</w>",
      "b one</w>",
      "c ri",
      "i m",
      "mista ke</w>",
      "fa ther</w>",
      "poli ce</w>",
      "speci ally</w>",
      "plea sed</w>",
      "gi ggled</w>",
      "usu al</w>",
      "as king</w>",
      "e specially</w>",
      "medic ine</w>",
      "fru its</w>",
      "i ght</w>",
      "fe ed</w>",
      "a r</w>",
      "bob by</w>",
      "fa ke</w>",
      "n ea",
      "dra wing</w>",
      "swee tie</w>",
      "vege tables</w>",
      "cro wn</w>",
      "wal ks</w>",
      "pa in</w>",
      "do gs</w>",
      "ma tch</w>",
      "lo cked</w>",
      "eg gs</w>",
      "li cked</w>",
      "dist ance</w>",
      "bo ys</w>",
      "mo ving</w>",
      "co vered</w>",
      "nu mber</w>",
      "de st",
      "ti ons</w>",
      "spla shed</w>",
      "mo vi",
      "ir d</w>",
      "lo se</w>",
      "d ru",
      "p in",
      "disapp eared</w>",
      "smel ly</w>",
      "fea thers</w>",
      "ba ke</w>",
      "g lue</w>",
      "wa ke</w>",
      "s cra",
      "cal ling</w>",
      "rro r</w>",
      "mo ms</w>",
      "low s</w>",
      "p ay</w>",
      "gu n</w>",
      "rel a",
      "bath room</w>",
      "b in</w>",
      "x es</w>",
      "la zy</w>",
      "no d</w>",
      "be come</w>",
      "der ly</w>",
      "in ess</w>",
      "in cre",
      "incre di",
      "respec t</w>",
      "ta pe</w>",
      "p op",
      "i led</w>",
      "pe te</w>",
      "no isy</w>",
      "mi cro",
      "mi ssi",
      "c er",
      "ho se</w>",
      "play ground</w>",
      "el derly</w>",
      "to es</w>",
      "y ours</w>",
      "g er",
      "questi ons</w>",
      "lo y",
      "mi rror</w>",
      "d rank</w>",
      "k er</w>",
      "el lie</w>",
      "st ones</w>",
      "for m</w>",
      "ru ined</w>",
      "gi ving</w>",
      "b by</w>",
      "fa mous</w>",
      "than ks</w>",
      "gg y</w>",
      "su gge",
      "to o",
      "m andy</w>",
      "kee per</w>",
      "l l",
      "si st",
      "ski pped</w>",
      "man a",
      "ma il",
      "gg le</w>",
      "ti ger</w>",
      "show s</w>",
      "str on",
      "p enny</w>",
      "ck ets</w>",
      "w ro",
      "wro te</w>",
      "t ches</w>",
      "ju icy</w>",
      "dec ide</w>",
      "incredi ble</w>",
      "la mp</w>",
      "co ins</w>",
      "a de</w>",
      "t an",
      "t ball</w>",
      "ea ger</w>",
      "tu b</w>",
      "to wel</w>",
      "pil low</w>",
      "wea k</w>",
      "ch ang",
      "th ose</w>",
      "m el",
      "b lu",
      "sai led</w>",
      "mi gh",
      "ff ed</w>",
      "clean ed</w>",
      "fla g</w>",
      "nee ds</w>",
      "to r",
      "wh eel</w>",
      "i e</w>",
      "rou s</w>",
      "jo ke</w>",
      "er ry</w>",
      "ho o",
      "af ter",
      "mea sure</w>",
      "bel on",
      "bran ches</w>",
      "ba lance</w>",
      "li fted</w>",
      "loy al</w>",
      "reali sed</w>",
      "cl ear</w>",
      "f red</w>",
      "pa ir</w>",
      "s cu",
      "si l",
      "off ered</w>",
      "chick en</w>",
      "migh ty</w>",
      "l ous</w>",
      "di g</w>",
      "qu e</w>",
      "r are</w>",
      "j ea",
      "w ned</w>",
      "cha se</w>",
      "as h</w>",
      "k y</w>",
      "adven tu",
      "m rs</w>",
      "disco vered</w>",
      "t ray</w>",
      "m ay</w>",
      "bu tter</w>",
      "z ard</w>",
      "clo wn</w>",
      "pi e</w>",
      "ne ck</w>",
      "organi zed</w>",
      "soa p</w>",
      "adventu rous</w>",
      "e ye</w>",
      "pl e",
      "hur ts</w>",
      "bar n</w>",
      "a ted</w>",
      "uni que</w>",
      "d on",
      "di ffi",
      "diffi cu",
      "cro ss</w>",
      "o o</w>",
      "cir cle</w>",
      "ma p</w>",
      "le y</w>",
      "happ ening</w>",
      "colou rful</w>",
      "bo t",
      "jea lous</w>",
      "bob o</w>",
      "wh e",
      "ta g</w>",
      "wra pped</w>",
      "bel la</w>",
      "ght ened</w>",
      "un cle</w>",
      "bot tom</w>",
      "smo ke</w>",
      "sa dly</w>",
      "ar gu",
      "un t</w>",
      "lear ning</w>",
      "kin dness</w>",
      "fi ll</w>",
      "run k</w>",
      "lou der</w>",
      "i si",
      "li sh</w>",
      "z z</w>",
      "a po",
      "di zzy</w>",
      "banan a</w>",
      "tru cks</w>",
      "comp e",
      "i med</w>",
      "won der</w>",
      "twee ty</w>",
      "kni fe</w>",
      "bir die</w>",
      "apo lo",
      "sha ke</w>",
      "difficu lt</w>",
      "w and</w>",
      "a unt</w>",
      "st ri",
      "m on</w>",
      "squ ee",
      "we ird</w>",
      "gar age</w>",
      "th in</w>",
      "li ft</w>",
      "u m</w>",
      "u sing</w>",
      "ballo ons</w>",
      "craw led</w>",
      "sp u",
      "poin ting</w>",
      "hard er</w>",
      "o li",
      "un usual</w>",
      "mana ged</w>",
      "chi rp",
      "do or",
      "a m",
      "c ity</w>",
      "ba ld</w>",
      "wha le</w>",
      "sol di",
      "tea m</w>",
      "zi p</w>",
      "sear ch</w>",
      "tou gh</w>",
      "fav our",
      "stra w",
      "nor ma",
      "sa ying</w>",
      "dinosau r</w>",
      "bo xes</w>",
      "sur r",
      "mar ket</w>",
      "com ple",
      "ste p</w>",
      "ex t",
      "f our</w>",
      "k night</w>",
      "is land</w>",
      "laugh s</w>",
      "mo de",
      "tur tle</w>",
      "favour ite</w>",
      "ar t</w>",
      "spu n</w>",
      "a dded</w>",
      "do m</w>",
      "do ws</w>",
      "g ing</w>",
      "figu re</w>",
      "ca te</w>",
      "p en</w>",
      "ch u",
      "shel ls</w>",
      "s word</w>",
      "zo o",
      "ne mo</w>",
      "m en",
      "ha ts</w>",
      "ext ra</w>",
      "gu it",
      "impre ssed</w>",
      "d ent</w>",
      "k id</w>",
      "al ready</w>",
      "norma l</w>",
      "a tor</w>",
      "to a",
      "pain ting</w>",
      "enjo ying</w>",
      "con tent</w>",
      "belon ged</w>",
      "bri lli",
      "bo rn</w>",
      "sma l",
      "foo t</w>",
      "e dge</w>",
      "tru st</w>",
      "help s</w>",
      "bu tt",
      "f l",
      "c lay</w>",
      "dru m</w>",
      "excite dly</w>",
      "sha pe</w>",
      "lou dly</w>",
      "thi ck</w>",
      "li br",
      "pu mp",
      "a ir",
      "cho ose</w>",
      "ni ce",
      "pa w</w>",
      "esca pe</w>",
      "bo ssy</w>",
      "fre e",
      "cir cles</w>",
      "succe ss",
      "cray on</w>",
      "che ck</w>",
      "fal ls</w>",
      "butt ons</w>",
      "st rea",
      "aga in",
      "cla p</w>",
      "drea med</w>",
      "me ans</w>",
      "apolo gi",
      "brilli ant</w>",
      "fri ghtened</w>",
      "ter ri",
      "s sage</w>",
      "ig no",
      "h ou",
      "brea k",
      "swa n</w>",
      "again st</w>",
      "safe ly</w>",
      "sco o",
      "inv ited</w>",
      "bro thers</w>",
      "mi x",
      "ci ent</w>",
      "guit ar</w>",
      "ac ce",
      "s nee",
      "gro wn</w>",
      "sli pped</w>",
      "an cient</w>",
      "prou dly</w>",
      "happ iness</w>",
      "che erful</w>",
      "kno ws</w>",
      "so phi",
      "movi e</w>",
      "di ent</w>",
      "t runk</w>",
      "break fast</w>",
      "valu able</w>",
      "bel ong</w>",
      "li ghts</w>",
      "stu b",
      "v el",
      "hou ses</w>",
      "l ds</w>",
      "s ni",
      "sh out</w>",
      "fri dge</w>",
      "du cky</w>",
      "go ld</w>",
      "sp ed</w>",
      "lo la</w>",
      "bo r",
      "er i",
      "sp in",
      "si ght</w>",
      "pla ced</w>",
      "fi er",
      "foo lish</w>",
      "lo g</w>",
      "ki ck</w>",
      "sk in</w>",
      "r h",
      "f at</w>",
      "wal ls</w>",
      "ar ed</w>",
      "compe ti",
      "nice ly</w>",
      "no sy</w>",
      "spa ce</w>",
      "boun ce</w>",
      "drea ms</w>",
      "a t",
      "tt en</w>",
      "ru bbed</w>",
      "noti ce</w>",
      "wa gon</w>",
      "stub born</w>",
      "too ls</w>",
      "deli cate</w>",
      "ke ys</w>",
      "ja m</w>",
      "d ough</w>",
      "collec t</w>",
      "exc la",
      "ge or",
      "u se",
      "success ful</w>",
      "e w</w>",
      "sti r",
      "dea d</w>",
      "use ful</w>",
      "p ort</w>",
      "prin t</w>",
      "pou red</w>",
      "ba gs</w>",
      "excla imed</w>",
      "sugge sted</w>",
      "to ma",
      "ta l</w>",
      "mi xed</w>",
      "wi ped</w>",
      "bor row</w>",
      "car t</w>",
      "offi ce</w>",
      "ho rn</w>",
      "go at</w>",
      "soun ded</w>",
      "eg g</w>",
      "be es</w>",
      "ea l</w>",
      "ser ve</w>",
      "tt ers</w>",
      "sto ve</w>",
      "s in",
      "ld na</w>",
      "da ble</w>",
      "gh ter</w>",
      "rea ding</w>",
      "kin ds</w>",
      "gi le</w>",
      "clo ck</w>",
      "smal ler</w>",
      "po p</w>",
      "ght ful</w>",
      "bu shes</w>",
      "fier ce</w>",
      "the m",
      "them selves</w>",
      "fra gile</w>",
      "f ountain</w>",
      "depen dable</w>",
      "show ing</w>",
      "stu mbled</w>",
      "explo red</w>",
      "pas s</w>",
      "obe dient</w>",
      "a bo",
      "ac t</w>",
      "abo ve</w>",
      "jo lly</w>",
      "pa tch</w>",
      "ani c</w>",
      "coun ted</w>",
      "fin gers</w>",
      "in depen",
      "geor ge</w>",
      "an n</w>",
      "ro de</w>",
      "re scu",
      "spin ning</w>",
      "par rot</w>",
      "in ation</w>",
      "ra ced</w>",
      "ch ea",
      "chang ed</w>",
      "en or",
      "i es</w>",
      "ro of</w>",
      "enor mous</w>",
      "v ice</w>",
      "clean ing</w>",
      "deli gh",
      "spo iled</w>",
      "o ri",
      "practi ce</w>",
      "play ful</w>",
      "di a",
      "admi red</w>",
      "u mb",
      "mi ke</w>",
      "bo ok",
      "umb rel",
      "bri ghtly</w>",
      "mea l</w>",
      "bui lt</w>",
      "ki cked</w>",
      "deligh ted</w>",
      "qu a",
      "stron ger</w>",
      "shar k</w>",
      "bo ats</w>",
      "bit ter</w>",
      "op er",
      "pa n</w>",
      "to by</w>",
      "co stu",
      "je wel",
      "remin ded</w>",
      "don a</w>",
      "sol ve</w>",
      "an ge",
      "ori gin",
      "pump kin</w>",
      "frien d",
      "b er</w>",
      "do ve</w>",
      "att a",
      "sh one</w>",
      "whisp ered</w>",
      "h anded</w>",
      "mp le</w>",
      "w ers</w>",
      "indepen dent</w>",
      "ti es</w>",
      "wra p</w>",
      "pop corn</w>",
      "bar ber</w>",
      "origin al</w>",
      "re li",
      "da ve</w>",
      "e tt",
      "tu mmy</w>",
      "al lowed</w>",
      "st s</w>",
      "po wer</w>",
      "ha iry</w>",
      "mo der",
      "un known</w>",
      "coura ge</w>",
      "pain ted</w>",
      "s cream</w>",
      "th ir",
      "jo g</w>",
      "c to",
      "y ar",
      "v et</w>",
      "jo ined</w>",
      "ha mmer</w>",
      "reli able</w>",
      "sp ray</w>",
      "c one</w>",
      "al s</w>",
      "clu m",
      "wea lthy</w>",
      "phi n</w>",
      "s care</w>",
      "dol phin</w>",
      "y et</w>",
      "le e</w>",
      "me mo",
      "co ver</w>",
      "bi ll</w>",
      "ga sped</w>",
      "me tal</w>",
      "der ed</w>",
      "ru shed</w>",
      "ro o",
      "do e",
      "er ing</w>",
      "comp as",
      "sp end</w>",
      "ca u",
      "thou ghtful</w>",
      "fin ding</w>",
      "ho lds</w>",
      "pe an",
      "lea ving</w>",
      "c il</w>",
      "t ching</w>",
      "st up",
      "ange l</w>",
      "cho se</w>",
      "dia mon",
      "pen cil</w>",
      "œ yes</w>",
      "sa la",
      "ru bb",
      "l la</w>",
      "toa st</w>",
      "stup id</w>",
      "jo ey</w>",
      "terri ble</w>",
      "pi cking</w>",
      "sta tu",
      "for th</w>",
      "nee d",
      "ad d</w>",
      "pira te</w>",
      "yar n</w>",
      "lo lli",
      "x i",
      "ti ed</w>",
      "for t</w>",
      "mar ch</w>",
      "re gu",
      "thin king</w>",
      "ld ed</w>",
      "po ta",
      "deli ght</w>",
      "ho r",
      "gu il",
      "ca mer",
      "moder n</w>",
      "co di",
      "cro codi",
      "sau ce</w>",
      "clum sy</w>",
      "bea k</w>",
      "ru g</w>",
      "guil ty</w>",
      "po lly</w>",
      "slee ping</w>",
      "ad vice</w>",
      "sta ge</w>",
      "op ens</w>",
      "tel ling</w>",
      "ban da",
      "goo se</w>",
      "ki m</w>",
      "l y",
      "ha lf</w>",
      "go tten</w>",
      "pa u",
      "tt ered</w>",
      "cto ry</w>",
      "umbrel la</w>",
      "crea te</w>",
      "ser ious</w>",
      "no on</w>",
      "pe bb",
      "ssi ve</w>",
      "gro w",
      "vi ew</w>",
      "ele ss</w>",
      "sala d</w>",
      "nu mb",
      "na ture</w>",
      "pi ge",
      "wa shed</w>",
      "in gre",
      "str anger</w>",
      "camer a</w>",
      "s ink</w>",
      "m ents</w>",
      "spa gh",
      "ett i</w>",
      "spagh etti</w>",
      "sear ching</w>",
      "no body</w>",
      "nu rse</w>",
      "compas si",
      "y er</w>",
      "ri se</w>",
      "ri bb",
      "mi ssing</w>",
      "wee k</w>",
      "strea m</w>",
      "da l</w>",
      "dest ro",
      "ex a",
      "cra zy</w>",
      "doe sn</w>",
      "in es</w>",
      "cla ss</w>",
      "po pu",
      "du ll</w>",
      "ch ec",
      "thir sty</w>",
      "hoo p</w>",
      "ha y</w>",
      "impre ssive</w>",
      "sho cked</w>",
      "car rying</w>",
      "gu ard</w>",
      "dri ving</w>",
      "le mon</w>",
      "regu lar</w>",
      "ja cket</w>",
      "popu lar</w>",
      "see ds</w>",
      "friend ship</w>",
      "drea ming</w>",
      "ne l</w>",
      "gra ceful</w>",
      "ver se</w>",
      "fla sh",
      "tan k</w>",
      "j ect</w>",
      "fle xi",
      "whe els</w>",
      "eng ine</w>",
      "lo pe</w>",
      "sto ps</w>",
      "spark led</w>",
      "sp ea",
      "pen gu",
      "per sist",
      "s nea",
      "th under</w>",
      "ti re</w>",
      "sophi e</w>",
      "door s</w>",
      "scre en</w>",
      "ear ly</w>",
      "cr yst",
      "pa ck",
      "bee p</w>",
      "flexi ble</w>",
      "butter flies</w>",
      "blu e",
      "e l</w>",
      "c ane</w>",
      "or din",
      "po ppy</w>",
      "ordin ary</w>",
      "numb ers</w>",
      "nu t</w>",
      "dro p</w>",
      "tru th</w>",
      "c t</w>",
      "i ther</w>",
      "pa tter",
      "en ve",
      "imag ined</w>",
      "com pu",
      "fea ther</w>",
      "pee ked</w>",
      "bra cel",
      "libr ary</w>",
      "bracel et</w>",
      "ingre di",
      "ingredi ents</w>",
      "b ra</w>",
      "flash light</w>",
      "œ leta</w>",
      "h a</w>",
      "sw ea",
      "me lo",
      "en thu",
      "f in</w>",
      "enthu si",
      "mo le</w>",
      "war ned</w>",
      "crocodi le</w>",
      "sudd en</w>",
      "enthusi as",
      "gi e</w>",
      "bee tle</w>",
      "jel ly</w>",
      "hur ry</w>",
      "y ay</w>",
      "diamon d</w>",
      "har m",
      "a head</w>",
      "ha ir",
      "spi lled</w>",
      "statu e</w>",
      "fre sh</w>",
      "su it</w>",
      "tun nel</w>",
      "a vo",
      "a le",
      "sca le</w>",
      "r at</w>",
      "gu m</w>",
      "ste ps</w>",
      "to wers</w>",
      "flu te</w>",
      "che w</w>",
      "car eless</w>",
      "g ho",
      "chea p</w>",
      "sli des</w>",
      "pri ze</w>",
      "bi gge",
      "bigge st</w>",
      "valu e</w>",
      "hu mble</w>",
      "no te</w>",
      "isi on</w>",
      "stu r",
      "h andle</w>",
      "jump s</w>",
      "on i",
      "mail box</w>",
      "li g",
      "ba dly</w>",
      "b ent</w>",
      "coo king</w>",
      "re cei",
      "rin ging</w>",
      "cr ane</w>",
      "ea si",
      "spo ke</w>",
      "in tel",
      "gro wing</w>",
      "intel lig",
      "gg ling</w>",
      "t ful</w>",
      "celebra te</w>",
      "bu ll</w>",
      "cup board</w>",
      "sor ts</w>",
      "sp ir",
      "coun ting</w>",
      "sof a</w>",
      "bro w",
      "un comfortable</w>",
      "dd led</w>",
      "persist ent</w>",
      "re ci",
      "cou ldna</w>",
      "sp ra",
      "o lder</w>",
      "beau ty</w>",
      "re ma",
      "harm less</w>",
      "sp ring</w>",
      "v ani",
      "pa le</w>",
      "cer eal</w>",
      "sh ee",
      "de sk</w>",
      "ca kes</w>",
      "na mes</w>",
      "co co",
      "han g</w>",
      "rin k",
      "oc to",
      "preten ding</w>",
      "octo pu",
      "sho ot</w>",
      "qui ck</w>",
      "s qui",
      "and a</w>",
      "tri ang",
      "hun ter</w>",
      "ver ing</w>",
      "pa st</w>",
      "sandwi ches</w>",
      "re fused</w>",
      "g loo",
      "fl our</w>",
      "whi st",
      "or der</w>",
      "gre e",
      "s andy</w>",
      "pe pper</w>",
      "compu ter</w>",
      "sh ut</w>",
      "sun flower</w>",
      "dea f</w>",
      "dra wer</w>",
      "tur key</w>",
      "lea d</w>",
      "tra ck</w>",
      "ar i",
      "a u",
      "tra sh</w>",
      "j et</w>",
      "char ming</w>",
      "sai lo",
      "en v",
      "x ious</w>",
      "gra ce</w>",
      "an xious</w>",
      "gi fted</w>",
      "octopu s</w>",
      "ale x</w>",
      "brow nie</w>",
      "cryst al</w>",
      "snu ggled</w>",
      "sel l</w>",
      "cha sing</w>",
      "bu ddy</w>",
      "p ho",
      "in ing</w>",
      "ru les</w>",
      "see m</w>",
      "ge m</w>",
      "pau l</w>",
      "att ra",
      "ra ven</w>",
      "li vely</w>",
      "sli d</w>",
      "li zard</w>",
      "i sed</w>",
      "fi ve</w>",
      "gi ra",
      "thi ef</w>",
      "z es</w>",
      "enve lope</w>",
      "ru b</w>",
      "twir led</w>",
      "stu dy</w>",
      "ig nor",
      "u c",
      "a do",
      "v room</w>",
      "mi ser",
      "dis gu",
      "pon y</w>",
      "neigh b",
      "de sign</w>",
      "h en",
      "sit y</w>",
      "pige on</w>",
      "lea sh</w>",
      "pi an",
      "sp on",
      "ze bra</w>",
      "dro ps</w>",
      "banda ge</w>",
      "m en</w>",
      "soldi er</w>",
      "car to",
      "ski p</w>",
      "m i</w>",
      "par ade</w>",
      "an nie</w>",
      "mu sh",
      "on ate</w>",
      "gloo my</w>",
      "miser able</w>",
      "intellig ent</w>",
      "pian o</w>",
      "b in",
      "ar row</w>",
      "go ri",
      "al ert</w>",
      "hun g</w>",
      "ignor ant</w>",
      "compassi onate</w>",
      "hel met</w>",
      "bel t</w>",
      "v ide",
      "sha king</w>",
      "sta tion</w>",
      "ck le</w>",
      "re turn</w>",
      "stre tched</w>",
      "wa s",
      "wi shes</w>",
      "char lie</w>",
      "need le</w>",
      "th s</w>",
      "du g</w>",
      "chu bby</w>",
      "co llar</w>",
      "o ver",
      "a id</w>",
      "le tters</w>",
      "se par",
      "squ are</w>",
      "ma s</w>",
      "j erry</w>",
      "le an",
      "gu ess</w>",
      "b led</w>",
      "any where</w>",
      "hen ry</w>",
      "pack age</w>",
      "car pet</w>",
      "star ts</w>",
      "boun ced</w>",
      "crea tures</w>",
      "tra p</w>",
      "twee tie</w>",
      "p ants</w>",
      "p at</w>",
      "squ ash</w>",
      "cti ve</w>",
      "list ening</w>",
      "fe ar",
      "re si",
      "competi tive</w>",
      "fire man</w>",
      "stick ers</w>",
      "every day</w>",
      "at tic</w>",
      "mea su",
      "un g</w>",
      "some where</w>",
      "respec tful</w>",
      "gho st</w>",
      "b low</w>",
      "cu be</w>",
      "re st",
      "ju g</w>",
      "s la",
      "di stur",
      "mp ed</w>",
      "ho od</w>",
      "bar k</w>",
      "win dows</w>",
      "shou ts</w>",
      "al li",
      "ch ance</w>",
      "car ds</w>",
      "pre ssed</w>",
      "attra ctive</w>",
      "past a</w>",
      "hi pp",
      "pl ess</w>",
      "pa pa</w>",
      "hel pless</w>",
      "en er",
      "it self</w>",
      "ra ble</w>",
      "decora te</w>",
      "sp e",
      "ec ted</w>",
      "le mon",
      "o st",
      "ost rich</w>",
      "practi ced</w>",
      "tru mp",
      "g y</w>",
      "s y",
      "gi ven</w>",
      "any way</w>",
      "melo n</w>",
      "nu ts</w>",
      "li ght",
      "alli ga",
      "y ou",
      "it h</w>",
      "gori lla</w>",
      "li d</w>",
      "to ol</w>",
      "fur ther</w>",
      "clu b</w>",
      "pi pe</w>",
      "c andle</w>",
      "fi lthy</w>",
      "coco a</w>",
      "stir red</w>",
      "en ded</w>",
      "trou bled</w>",
      "disgu sting</w>",
      "ho w",
      "i ls</w>",
      "di sh</w>",
      "ari an</w>",
      "twee t</w>",
      "pa ws</w>",
      "fear ful</w>",
      "wa ff",
      "re sta",
      "co p",
      "bro c",
      "f ear</w>",
      "po st</w>",
      "p ers</w>",
      "ck ey</w>",
      "ado rable</w>",
      "bri ghter</w>",
      "jel ly",
      "tra vel</w>",
      "sha dow</w>",
      "swee the",
      "col i</w>",
      "broc coli</w>",
      "sti r</w>",
      "rest less</w>",
      "le o",
      "mon keys</w>",
      "lolli pop</w>",
      "se con",
      "fa n</w>",
      "qu ar",
      "sweethe art</w>",
      "m m",
      "missi on</w>",
      "whi sk",
      "p or",
      "leo par",
      "j eep</w>",
      "scoo ter</w>",
      "mil lie</w>",
      "stre tch</w>",
      "li lly</w>",
      "ma sk</w>",
      "im patient</w>",
      "n t</w>",
      "œ what</w>",
      "po e",
      "whisk ers</w>",
      "he li",
      "bar king</w>",
      "after noon</w>",
      "radi o</w>",
      "f as",
      "ch y</w>",
      "cra ck</w>",
      "sand box</w>",
      "st les</w>",
      "hi ve</w>",
      "com b</w>",
      "ba se",
      "a ero",
      "rela x</w>",
      "com pla",
      "gi ggle</w>",
      "de ss",
      "vo l",
      "se ly</w>",
      "jelly fish</w>",
      "cri cket</w>",
      "ma th</w>",
      "ur ant</w>",
      "resta urant</w>",
      "re cord</w>",
      "cra wl</w>",
      "gla sses</w>",
      "no where</w>",
      "dist ant</w>",
      "heli cop",
      "sor t</w>",
      "ba tter",
      "su mmer</w>",
      "p our</w>",
      "dan ny</w>",
      "ent ly</w>",
      "env ious</w>",
      "e en</w>",
      "ca ts</w>",
      "li ons</w>",
      "bath tub</w>",
      "ca p</w>",
      "light ning</w>",
      "g ree</w>",
      "dd les</w>",
      "soa r</w>",
      "sa lt</w>",
      "trump et</w>",
      "bubb le</w>",
      "coo ked</w>",
      "gra bs</w>",
      "sho e</w>",
      "shee t</w>",
      "for k</w>",
      "p uni",
      "k ang",
      "che er</w>",
      "questi on</w>",
      "ca stles</w>",
      "bi cycle</w>",
      "kang ar",
      "happi er</w>",
      "be have</w>",
      "squ ea",
      "it ch</w>",
      "sp lit</w>",
      "pu lls</w>",
      "bu n",
      "fin ds</w>",
      "bu n</w>",
      "imp ro",
      "tun a</w>",
      "ri ce</w>",
      "swea ter</w>",
      "c in",
      "sea l</w>",
      "hipp o</w>",
      "har sh</w>",
      "qu ite</w>",
      "me ssage</w>",
      "cha l",
      "alliga tor</w>",
      "g li",
      "bu l",
      "co ws</w>",
      "pi lot</w>",
      "leopar d</w>",
      "ca c",
      "s le",
      "sp ort</w>",
      "stu ff</w>",
      "er as",
      "l en</w>",
      "ne w",
      "admi re</w>",
      "pu rse</w>",
      "v ine</w>",
      "star ed</w>",
      "p anda</w>",
      "la un",
      "wor ks</w>",
      "tri pped</w>",
      "ho ok</w>",
      "mu se",
      "si ze</w>",
      "ho les</w>",
      "wh eat</w>",
      "hea l</w>",
      "bi kes</w>",
      "organi ze</w>",
      "mag net</w>",
      "how ever</w>",
      "for gave</w>",
      "mode st</w>",
      "k ate</w>",
      "x i</w>",
      "did na</w>",
      "ri ding</w>",
      "mi mi</w>",
      "wan der</w>",
      "dang er</w>",
      "enthusias tic</w>",
      "pa id</w>",
      "o tter</w>",
      "roo ms</w>",
      "to oth</w>",
      "ro ared</w>",
      "mu g</w>",
      "pu shing</w>",
      "in k",
      "cu shi",
      "spir it</w>",
      "boo ts</w>",
      "helicop ter</w>",
      "dess ert</w>",
      "pea ce</w>",
      "re co",
      "per form</w>",
      "na p",
      "tra ins</w>",
      "v an</w>",
      "pa lace</w>",
      "fi l",
      "rescu e</w>",
      "sta ck</w>",
      "vol can",
      "tw ink",
      "ro d</w>",
      "s ent</w>",
      "y ell</w>",
      "triang le</w>",
      "di ed</w>",
      "po le</w>",
      "bir d",
      "g ni",
      "pa pers</w>",
      "sco pe</w>",
      "cac tu",
      "sw inging</w>",
      "see ing</w>",
      "p run",
      "tri ck</w>",
      "vi oli",
      "violi n</w>",
      "e ither</w>",
      "th read</w>",
      "co met</w>",
      "reco gni",
      "fro wned</w>",
      "kno ck</w>",
      "ro lling</w>",
      "stick er</w>",
      "micro phone</w>",
      "straw berry</w>",
      "c en",
      "mar ia</w>",
      "co p</w>",
      "jo kes</w>",
      "sha kes</w>",
      "fo ld</w>",
      "se ed</w>",
      "pro v",
      "sil ver</w>",
      "muse um</w>",
      "g a</w>",
      "k not</w>",
      "star ting</w>",
      "sha de</w>",
      "n eat</w>",
      "exp eri",
      "pu shes</w>",
      "re ward</w>",
      "s ly</w>",
      "fe e</w>",
      "yo gu",
      "stea l</w>",
      "banan as</w>",
      "ob ject</w>",
      "sailo r</w>",
      "bl in",
      "imag ine</w>",
      "no te",
      "mi ld</w>",
      "spe ed</w>",
      "s ir</w>",
      "wi re</w>",
      "har ry</w>",
      "sp rink",
      "dra wings</w>",
      "avo ca",
      "be ars</w>",
      "th a",
      "chal k</w>",
      "sho p",
      "sof tly</w>",
      "pengu in</w>",
      "cactu s</w>",
      "wal let</w>",
      "sh ri",
      "ve st</w>",
      "f fee</w>",
      "yogu rt</w>",
      "pebb le</w>",
      "n it",
      "ee per</w>",
      "chec ked</w>",
      "am bu",
      "shop keeper</w>",
      "y a</w>",
      "en coura",
      "sh rin",
      "el ev",
      "app reci",
      "costu me</w>",
      "pu r",
      "el ds</w>",
      "ener gy</w>",
      "mo tor",
      "sin ce</w>",
      "so ck</w>",
      "kangar oo</w>",
      "co ffee</w>",
      "qui e",
      "rin gs</w>",
      "bar ks</w>",
      "ta xi</w>",
      "gra pes</w>",
      "back pack</w>",
      "fal ling</w>",
      "smel ls</w>",
      "op ed</w>",
      "climb ing</w>",
      "toma to</w>",
      "ali ve</w>",
      "ha d",
      "lear nt</w>",
      "du st</w>",
      "cla pping</w>",
      "mu le</w>",
      "colou rs</w>",
      "zoo med</w>",
      "ra ft</w>",
      "bar rel</w>",
      "elev ator</w>",
      "a va",
      "even ing</w>",
      "ta p</w>",
      "rubb er</w>",
      "pu tting</w>",
      "ambu lance</w>",
      "ja mes</w>",
      "laun dry</w>",
      "ci an</w>",
      "mi ll</w>",
      "vis ited</w>",
      "re in",
      "volcan o</w>",
      "ck i",
      "na l</w>",
      "su per",
      "tri cks</w>",
      "g ri",
      "aero plane</w>",
      "shi eld</w>",
      "mag gie</w>",
      "sm ith</w>",
      "plan es</w>",
      "g low</w>",
      "mar ched</w>",
      "twi st</w>",
      "note book</w>",
      "lu cki",
      "mar ry</w>",
      "re spon",
      "bask e",
      "a corn</w>",
      "cel ery</w>",
      "tha ta</w>",
      "ear th</w>",
      "cha in</w>",
      "air port</w>",
      "p it</w>",
      "lean ed</w>",
      "i la",
      "bel ongs</w>",
      "por ch</w>",
      "je wel</w>",
      "eras er</w>",
      "wo ol</w>",
      "ton y</w>",
      "ph y</w>",
      "ila ble</w>",
      "stea k</w>",
      "ava ilable</w>",
      "ca p",
      "poli sh</w>",
      "d ear</w>",
      "tu be</w>",
      "we b</w>",
      "feel ings</w>",
      "di shes</w>",
      "hair cut</w>",
      "re ss</w>",
      "me dal</w>",
      "ya ch",
      "baske tball</w>",
      "rain ing</w>",
      "sur es</w>",
      "d board</w>",
      "plan et</w>",
      "tro phy</w>",
      "r es</w>",
      "car dboard</w>",
      "cup s</w>",
      "apologi zed</w>",
      "go al</w>",
      "ta ins</w>",
      "rein deer</w>",
      "s end</w>",
      "di ve</w>",
      "out ing</w>",
      "t ask</w>",
      "un happy</w>",
      "rh in",
      "perf ec",
      "m bo",
      "s witch</w>",
      "comfor t</w>",
      "yo ga</w>",
      "fi elds</w>",
      "ga z",
      "ju dge</w>",
      "play er</w>",
      "att en",
      "yach t</w>",
      "h ang",
      "comple te</w>",
      "ho ping</w>",
      "in clu",
      "st er",
      "shel ter</w>",
      "wi fe</w>",
      "supp ort</w>",
      "fi sh",
      "brea ks</w>",
      "so il</w>",
      "c lar",
      "sk u",
      "win ter</w>",
      "cau li",
      "mush room</w>",
      "pa ge</w>",
      "ea ger",
      "ma gaz",
      "oni on</w>",
      "perfec tly</w>",
      "mix er</w>",
      "fro gs</w>",
      "shri mp</w>",
      "ven do",
      "jour nal</w>",
      "in se",
      "hea ds</w>",
      "u re</w>",
      "co al</w>",
      "sk ir",
      "gira f",
      "giraf fe</w>",
      "coun ter</w>",
      "be l</w>",
      "fur nit",
      "furnit ure</w>",
      "resi st</w>",
      "c cer</w>",
      "so ccer</w>",
      "clo sely</w>",
      "had n</w>",
      "fa ctory</w>",
      "rel s</w>",
      "fo lder</w>",
      "minu te</w>",
      "ser ved</w>",
      "spi ke</w>",
      "re e",
      "ba king</w>",
      "bloo m</w>",
      "sti c</w>",
      "go lf</w>",
      "thro ws</w>",
      "go d</w>",
      "qu it</w>",
      "me ch",
      "stu ffed</w>",
      "cauli flower</w>",
      "twi g</w>",
      "trea sures</w>",
      "l lie</w>",
      "tw een</w>",
      "be tween</w>",
      "re pair</w>",
      "eager ly</w>",
      "m eat</w>",
      "foo tball</w>",
      "ou sly</w>",
      "in si",
      "me e",
      "te l</w>",
      "pee k</w>",
      "ap pla",
      "fla me</w>",
      "loo p</w>",
      "sw ung</w>",
      "sku ll</w>",
      "shou ldn</w>",
      "ch ur",
      "or na",
      "ro sie</w>",
      "la ser</w>",
      "coo ler</w>",
      "vide o</w>",
      "pira tes</w>",
      "spea k</w>",
      "pean ut</w>",
      "poin ts</w>",
      "a tely</w>",
      "vendo r</w>",
      "o il</w>",
      "li ves</w>",
      "mech anic</w>",
      "pain ter</w>",
      "di ary</w>",
      "ho tel</w>",
      "sh ru",
      "hea ded</w>",
      "hu man</w>",
      "chur ch</w>",
      "sh outing</w>",
      "sk ele",
      "b lowing</w>",
      "fire place</w>",
      "po ke</w>",
      "wi pe</w>",
      "par ent</w>",
      "sp ell</w>",
      "motor cycle</w>",
      "te mple</w>",
      "fle a</w>",
      "ang u"
    ]
  }
}